{
  "version": "1.0",
  "truncation": null,
  "padding": null,
  "added_tokens": [],
  "normalizer": null,
  "pre_tokenizer": {
    "type": "ByteLevel",
    "add_prefix_space": false,
    "trim_offsets": true,
    "use_regex": true
  },
  "post_processor": null,
  "decoder": {
    "type": "ByteLevel",
    "add_prefix_space": true,
    "trim_offsets": true,
    "use_regex": true
  },
  "model": {
    "type": "BPE",
    "dropout": null,
    "unk_token": null,
    "continuing_subword_prefix": null,
    "end_of_word_suffix": null,
    "fuse_unk": false,
    "byte_fallback": false,
    "ignore_merges": false,
    "vocab": {
      "!": 0,
      "\"": 1,
      "#": 2,
      "$": 3,
      "%": 4,
      "&": 5,
      "'": 6,
      "(": 7,
      ")": 8,
      "*": 9,
      "+": 10,
      ",": 11,
      "-": 12,
      ".": 13,
      "/": 14,
      "0": 15,
      "1": 16,
      "2": 17,
      "3": 18,
      "4": 19,
      "5": 20,
      "6": 21,
      "7": 22,
      "8": 23,
      "9": 24,
      ":": 25,
      ";": 26,
      "<": 27,
      "=": 28,
      ">": 29,
      "?": 30,
      "@": 31,
      "A": 32,
      "B": 33,
      "C": 34,
      "D": 35,
      "E": 36,
      "F": 37,
      "G": 38,
      "H": 39,
      "I": 40,
      "J": 41,
      "K": 42,
      "L": 43,
      "M": 44,
      "N": 45,
      "O": 46,
      "P": 47,
      "Q": 48,
      "R": 49,
      "S": 50,
      "T": 51,
      "U": 52,
      "V": 53,
      "W": 54,
      "X": 55,
      "Y": 56,
      "Z": 57,
      "[": 58,
      "\\": 59,
      "]": 60,
      "^": 61,
      "_": 62,
      "`": 63,
      "a": 64,
      "b": 65,
      "c": 66,
      "d": 67,
      "e": 68,
      "f": 69,
      "g": 70,
      "h": 71,
      "i": 72,
      "j": 73,
      "k": 74,
      "l": 75,
      "m": 76,
      "n": 77,
      "o": 78,
      "p": 79,
      "q": 80,
      "r": 81,
      "s": 82,
      "t": 83,
      "u": 84,
      "v": 85,
      "w": 86,
      "x": 87,
      "y": 88,
      "z": 89,
      "{": 90,
      "|": 91,
      "}": 92,
      "~": 93,
      "¡": 94,
      "¢": 95,
      "£": 96,
      "¤": 97,
      "¥": 98,
      "¦": 99,
      "§": 100,
      "¨": 101,
      "©": 102,
      "ª": 103,
      "«": 104,
      "¬": 105,
      "®": 106,
      "¯": 107,
      "°": 108,
      "±": 109,
      "²": 110,
      "³": 111,
      "´": 112,
      "µ": 113,
      "¶": 114,
      "·": 115,
      "¸": 116,
      "¹": 117,
      "º": 118,
      "»": 119,
      "¼": 120,
      "½": 121,
      "¾": 122,
      "¿": 123,
      "À": 124,
      "Á": 125,
      "Â": 126,
      "Ã": 127,
      "Ä": 128,
      "Å": 129,
      "Æ": 130,
      "Ç": 131,
      "È": 132,
      "É": 133,
      "Ê": 134,
      "Ë": 135,
      "Ì": 136,
      "Í": 137,
      "Î": 138,
      "Ï": 139,
      "Ð": 140,
      "Ñ": 141,
      "Ò": 142,
      "Ó": 143,
      "Ô": 144,
      "Õ": 145,
      "Ö": 146,
      "×": 147,
      "Ø": 148,
      "Ù": 149,
      "Ú": 150,
      "Û": 151,
      "Ü": 152,
      "Ý": 153,
      "Þ": 154,
      "ß": 155,
      "à": 156,
      "á": 157,
      "â": 158,
      "ã": 159,
      "ä": 160,
      "å": 161,
      "æ": 162,
      "ç": 163,
      "è": 164,
      "é": 165,
      "ê": 166,
      "ë": 167,
      "ì": 168,
      "í": 169,
      "î": 170,
      "ï": 171,
      "ð": 172,
      "ñ": 173,
      "ò": 174,
      "ó": 175,
      "ô": 176,
      "õ": 177,
      "ö": 178,
      "÷": 179,
      "ø": 180,
      "ù": 181,
      "ú": 182,
      "û": 183,
      "ü": 184,
      "ý": 185,
      "þ": 186,
      "ÿ": 187,
      "Ā": 188,
      "ā": 189,
      "Ă": 190,
      "ă": 191,
      "Ą": 192,
      "ą": 193,
      "Ć": 194,
      "ć": 195,
      "Ĉ": 196,
      "ĉ": 197,
      "Ċ": 198,
      "ċ": 199,
      "Č": 200,
      "č": 201,
      "Ď": 202,
      "ď": 203,
      "Đ": 204,
      "đ": 205,
      "Ē": 206,
      "ē": 207,
      "Ĕ": 208,
      "ĕ": 209,
      "Ė": 210,
      "ė": 211,
      "Ę": 212,
      "ę": 213,
      "Ě": 214,
      "ě": 215,
      "Ĝ": 216,
      "ĝ": 217,
      "Ğ": 218,
      "ğ": 219,
      "Ġ": 220,
      "ġ": 221,
      "Ģ": 222,
      "ģ": 223,
      "Ĥ": 224,
      "ĥ": 225,
      "Ħ": 226,
      "ħ": 227,
      "Ĩ": 228,
      "ĩ": 229,
      "Ī": 230,
      "ī": 231,
      "Ĭ": 232,
      "ĭ": 233,
      "Į": 234,
      "į": 235,
      "İ": 236,
      "ı": 237,
      "Ĳ": 238,
      "ĳ": 239,
      "Ĵ": 240,
      "ĵ": 241,
      "Ķ": 242,
      "ķ": 243,
      "ĸ": 244,
      "Ĺ": 245,
      "ĺ": 246,
      "Ļ": 247,
      "ļ": 248,
      "Ľ": 249,
      "ľ": 250,
      "Ŀ": 251,
      "ŀ": 252,
      "Ł": 253,
      "ł": 254,
      "Ń": 255,
      "Ġt": 256,
      "he": 257,
      "Ġa": 258,
      "in": 259,
      "Ġthe": 260,
      "er": 261,
      "on": 262,
      "Ġ,": 263,
      "re": 264,
      "Ġs": 265,
      "ed": 266,
      "Ġo": 267,
      "Ġw": 268,
      "nd": 269,
      "at": 270,
      "Ġ.": 271,
      "or": 272,
      "it": 273,
      "Ġc": 274,
      "en": 275,
      "Ġf": 276,
      "is": 277,
      "es": 278,
      "ar": 279,
      "Ġof": 280,
      "Ġb": 281,
      "an": 282,
      "Ġin": 283,
      "al": 284,
      "ing": 285,
      "Ġp": 286,
      "Ġand": 287,
      "as": 288,
      "Ġto": 289,
      "ro": 290,
      "ic": 291,
      "Ġm": 292,
      "Ġd": 293,
      "Ġh": 294,
      "ion": 295,
      "le": 296,
      "ou": 297,
      "ĠT": 298,
      "Ġre": 299,
      "Ġ=": 300,
      "Ġ\"": 301,
      "ĠA": 302,
      "ĠS": 303,
      "ent": 304,
      "il": 305,
      "Ġth": 306,
      "Ġ1": 307,
      "st": 308,
      "ĠC": 309,
      "el": 310,
      "om": 311,
      "Ġl": 312,
      "am": 313,
      "ĠĊ": 314,
      "Ġe": 315,
      "Ġn": 316,
      "Ġ@": 317,
      "ad": 318,
      "ac": 319,
      "Ġwas": 320,
      "ĠM": 321,
      "ur": 322,
      "ĠThe": 323,
      "ec": 324,
      "Ġon": 325,
      "ly": 326,
      "ĠB": 327,
      "ĠI": 328,
      "Ġg": 329,
      "Ġ'": 330,
      "et": 331,
      "ol": 332,
      "id": 333,
      "iv": 334,
      "im": 335,
      "Ġfor": 336,
      "ir": 337,
      "-@": 338,
      "Ġ@-@": 339,
      "ig": 340,
      "ot": 341,
      "ter": 342,
      "Ġas": 343,
      "ĠH": 344,
      "us": 345,
      "ow": 346,
      "Ġst": 347,
      "ut": 348,
      "ith": 349,
      "ay": 350,
      "Ġ2": 351,
      "ĠP": 352,
      "ation": 353,
      "ver": 354,
      "Ġbe": 355,
      "her": 356,
      "Ġthat": 357,
      "Ġwith": 358,
      "ĠR": 359,
      "ce": 360,
      "th": 361,
      "ĠD": 362,
      "Ġis": 363,
      "un": 364,
      "em": 365,
      "ĠF": 366,
      "Ġwh": 367,
      "ul": 368,
      "Ġby": 369,
      "Ġal": 370,
      "ch": 371,
      "Ġ)": 372,
      "Ġ(": 373,
      "ĠW": 374,
      "Ġcon": 375,
      "ra": 376,
      "ĠG": 377,
      "os": 378,
      "ĠL": 379,
      "ĠN": 380,
      "Ġat": 381,
      "ers": 382,
      "ct": 383,
      "Ġit": 384,
      "Ġ19": 385,
      "rom": 386,
      "and": 387,
      "Ġan": 388,
      "um": 389,
      "est": 390,
      "ĠJ": 391,
      "ag": 392,
      "Ġhe": 393,
      "00": 394,
      "ist": 395,
      "ain": 396,
      "od": 397,
      "av": 398,
      "ri": 399,
      "ĠE": 400,
      "ĠO": 401,
      "Ġfrom": 402,
      "Ġcom": 403,
      "Ġhis": 404,
      "op": 405,
      "Ġpro": 406,
      "res": 407,
      "ies": 408,
      "if": 409,
      "Ġv": 410,
      "ort": 411,
      "ere": 412,
      "ill": 413,
      "ld": 414,
      "Ġde": 415,
      "pp": 416,
      "Ġsu": 417,
      "ore": 418,
      "ĠIn": 419,
      "Ġr": 420,
      "Ġse": 421,
      "Ġwere": 422,
      "ew": 423,
      "ong": 424,
      "igh": 425,
      "ard": 426,
      "ate": 427,
      "all": 428,
      "art": 429,
      "ak": 430,
      "ich": 431,
      "Ġch": 432,
      "Ġor": 433,
      "ab": 434,
      "ant": 435,
      "ud": 436,
      "oc": 437,
      "ber": 438,
      "Ġex": 439,
      "gh": 440,
      "ity": 441,
      "ated": 442,
      "pt": 443,
      "ess": 444,
      "ear": 445,
      "ĠK": 446,
      "Ġpl": 447,
      "ame": 448,
      "qu": 449,
      "ive": 450,
      "rou": 451,
      "Ġare": 452,
      "Ġâ": 453,
      "Ġsh": 454,
      "Ġk": 455,
      "ack": 456,
      "ect": 457,
      "ĠâĢ": 458,
      "ĠU": 459,
      "Ġhad": 460,
      "se": 461,
      "Ġwhich": 462,
      "red": 463,
      "ov": 464,
      "ĠSt": 465,
      "ast": 466,
      "Ġsp": 467,
      "ian": 468,
      "Ġy": 469,
      "ment": 470,
      "Ġle": 471,
      "Ġnot": 472,
      "ge": 473,
      "ord": 474,
      "rit": 475,
      "ip": 476,
      "ine": 477,
      "ell": 478,
      "ally": 479,
      "our": 480,
      "ost": 481,
      "ight": 482,
      "ther": 483,
      "ap": 484,
      "Ġu": 485,
      "ish": 486,
      "ĠCh": 487,
      "oun": 488,
      "ia": 489,
      "Ġ3": 490,
      "ave": 491,
      "ary": 492,
      "ust": 493,
      "og": 494,
      "Ġ200": 495,
      "Ġun": 496,
      "ous": 497,
      "irst": 498,
      "ĠV": 499,
      "cc": 500,
      "Ġinc": 501,
      "Ġ;": 502,
      "Ġcomp": 503,
      "ru": 504,
      "ions": 505,
      "Ġtheir": 506,
      "Ġbut": 507,
      "ide": 508,
      "ure": 509,
      "so": 510,
      "Ġcont": 511,
      "Ġint": 512,
      "fter": 513,
      "ical": 514,
      "ial": 515,
      "Ġar": 516,
      "Ġfirst": 517,
      "ould": 518,
      "Ġits": 519,
      "hed": 520,
      "ĠâĢĵ": 521,
      "Ġwhe": 522,
      "wo": 523,
      "out": 524,
      "ub": 525,
      "Ġ20": 526,
      "ff": 527,
      "Ġ:": 528,
      "ue": 529,
      "Ġher": 530,
      "own": 531,
      "ok": 532,
      "Ġalso": 533,
      "Ġcl": 534,
      "per": 535,
      "ign": 536,
      "ater": 537,
      "ran": 538,
      "orm": 539,
      "ie": 540,
      "ome": 541,
      "ork": 542,
      "ass": 543,
      "ire": 544,
      "end": 545,
      "Ġres": 546,
      "Ġab": 547,
      "Ġad": 548,
      "Ġus": 549,
      "ry": 550,
      "Ġrec": 551,
      "Ġhave": 552,
      "age": 553,
      "ĠHe": 554,
      "Ġ4": 555,
      "Ġro": 556,
      "mer": 557,
      "Ġone": 558,
      "ond": 559,
      "low": 560,
      "Ġhas": 561,
      "ĠTh": 562,
      "du": 563,
      "Ġ5": 564,
      "Ġper": 565,
      "Ġbeen": 566,
      "ime": 567,
      "Ġtwo": 568,
      "ence": 569,
      "land": 570,
      "Ġ18": 571,
      ".@": 572,
      "Ġ@.@": 573,
      "ult": 574,
      "ree": 575,
      "ough": 576,
      "ile": 577,
      "Ġwho": 578,
      "ĠAl": 579,
      "Ġsc": 580,
      "uring": 581,
      "pl": 582,
      "ory": 583,
      "ition": 584,
      "ric": 585,
      "ations": 586,
      "Ġdis": 587,
      "Ġthis": 588,
      "Ġbec": 589,
      "Ġapp": 590,
      "iz": 591,
      "ĠIt": 592,
      "are": 593,
      "ach": 594,
      "lud": 595,
      "ade": 596,
      "Ġplay": 597,
      "Ġj": 598,
      "Ġman": 599,
      "act": 600,
      "ely": 601,
      "Ġpart": 602,
      "Ġdes": 603,
      "Ġag": 604,
      "Ġthey": 605,
      "Ġyear": 606,
      "ount": 607,
      "Ġ201": 608,
      "Ġover": 609,
      "Ġother": 610,
      "ound": 611,
      "Ġafter": 612,
      "ib": 613,
      "over": 614,
      "Ġser": 615,
      "Ġen": 616,
      "Ġoff": 617,
      "Ġim": 618,
      "ction": 619,
      "ĠY": 620,
      "ke": 621,
      "ite": 622,
      ",@": 623,
      "Ġ@,@": 624,
      "te": 625,
      "urn": 626,
      "Ġinclud": 627,
      "ress": 628,
      "ance": 629,
      "ang": 630,
      "Ġatt": 631,
      "ice": 632,
      "ace": 633,
      "ark": 634,
      "Ġout": 635,
      "wn": 636,
      "ph": 637,
      "ember": 638,
      "Ġpre": 639,
      "Ġup": 640,
      "ens": 641,
      "man": 642,
      "Ġev": 643,
      "Ġtime": 644,
      "nder": 645,
      "rough": 646,
      "ced": 647,
      "Ġfin": 648,
      "Ġinto": 649,
      "one": 650,
      "port": 651,
      "round": 652,
      "we": 653,
      "ren": 654,
      "les": 655,
      "int": 656,
      "ĠOn": 657,
      "vel": 658,
      "Ġcomm": 659,
      "Ġshe": 660,
      "ason": 661,
      "amp": 662,
      "Ġte": 663,
      "Ġwould": 664,
      "ward": 665,
      "Ġmore": 666,
      "Ġ6": 667,
      "ied": 668,
      "ose": 669,
      "rib": 670,
      "ĠUn": 671,
      "Ġall": 672,
      "ings": 673,
      "tern": 674,
      "ces": 675,
      "able": 676,
      "Ġwe": 677,
      "ited": 678,
      "ever": 679,
      "ents": 680,
      "Ġhim": 681,
      "ased": 682,
      "ors": 683,
      "oy": 684,
      "ood": 685,
      "Ġcent": 686,
      "ix": 687,
      "ase": 688,
      "ild": 689,
      "ĠAn": 690,
      "Ġ7": 691,
      "Ġwork": 692,
      "ates": 693,
      "ious": 694,
      "ath": 695,
      "Ġpo": 696,
      "rop": 697,
      "old": 698,
      "als": 699,
      "iss": 700,
      "ey": 701,
      "ict": 702,
      "Ġfe": 703,
      "Ġthem": 704,
      "gan": 705,
      "Ġsec": 706,
      "Ġbet": 707,
      "Ġwhen": 708,
      "Ġsong": 709,
      "Ġrem": 710,
      "ep": 711,
      "form": 712,
      "ail": 713,
      "fer": 714,
      "Ġear": 715,
      "ubl": 716,
      "aw": 717,
      "Ġkn": 718,
      "ake": 719,
      "aus": 720,
      "Ġmost": 721,
      "Ġcons": 722,
      "Ġduring": 723,
      "ĠAs": 724,
      "orth": 725,
      "Ġnew": 726,
      "ered": 727,
      "ilm": 728,
      "ved": 729,
      "att": 730,
      "Ġonly": 731,
      "Ġ9": 732,
      "Ġdec": 733,
      "Ġ8": 734,
      "ick": 735,
      "Ġgame": 736,
      "ons": 737,
      "ug": 738,
      "Ġtr": 739,
      "ft": 740,
      "oth": 741,
      "ook": 742,
      "ĠMar": 743,
      "reat": 744,
      "way": 745,
      "Ġcan": 746,
      "ollow": 747,
      "outh": 748,
      "ween": 749,
      "ĠEn": 750,
      "Ġ199": 751,
      "ters": 752,
      "Ġrel": 753,
      "ind": 754,
      "Ġabout": 755,
      "Ġseason": 756,
      "Ġagain": 757,
      "ral": 758,
      "Ġthree": 759,
      "ational": 760,
      "Ġunder": 761,
      "ular": 762,
      "Ġme": 763,
      "Ġthan": 764,
      "ĠCom": 765,
      "ĠAr": 766,
      "hip": 767,
      "ob": 768,
      "Ġne": 769,
      "Ġbetween": 770,
      "Ġfl": 771,
      "hn": 772,
      "ve": 773,
      "Ġchar": 774,
      "Ġcol": 775,
      "Ġrecord": 776,
      "iew": 777,
      "ron": 778,
      "fore": 779,
      "Ġthrough": 780,
      "ision": 781,
      "orn": 782,
      "Ġ00": 783,
      "ock": 784,
      "Ġver": 785,
      "Ġlater": 786,
      "Ġnum": 787,
      "Ġend": 788,
      "olog": 789,
      "ames": 790,
      "Ġpos": 791,
      "Ġwrit": 792,
      "Ġprodu": 793,
      "Ġwhile": 794,
      "Ġact": 795,
      "Ġrele": 796,
      "Ġfilm": 797,
      "ished": 798,
      "Ġpr": 799,
      "ans": 800,
      "Ġreg": 801,
      "Ġform": 802,
      "Ġass": 803,
      "ĠSe": 804,
      "ury": 805,
      "ted": 806,
      "ts": 807,
      "Ġmade": 808,
      "Ġsub": 809,
      "Ġpe": 810,
      "Ġso": 811,
      "orld": 812,
      "Ġret": 813,
      "ĠNew": 814,
      "Ġspec": 815,
      "Ġacc": 816,
      "Ġqu": 817,
      "Ġwhere": 818,
      "ener": 819,
      "Ġmov": 820,
      "hes": 821,
      "meric": 822,
      "ating": 823,
      "Ġinter": 824,
      "ĠLe": 825,
      "ĠAmeric": 826,
      "Ġra": 827,
      "Ġsome": 828,
      "Ġco": 829,
      "Ġlar": 830,
      "Ġbu": 831,
      "Ġdef": 832,
      "bum": 833,
      "Ġac": 834,
      "Ġmus": 835,
      "Ġfollow": 836,
      "ĠAt": 837,
      "ins": 838,
      "ived": 839,
      "ific": 840,
      "ual": 841,
      "Ġam": 842,
      "Ġsuch": 843,
      "Ġsecond": 844,
      "ike": 845,
      "Ġfour": 846,
      "Ġind": 847,
      "ann": 848,
      "hen": 849,
      "Ġused": 850,
      "ĠRe": 851,
      "ics": 852,
      "lect": 853,
      "Ġday": 854,
      "iel": 855,
      "ily": 856,
      "ĠThis": 857,
      "Ġ0": 858,
      "Ġpubl": 859,
      "Ġcall": 860,
      "ĠJo": 861,
      "ll": 862,
      "Ġalbum": 863,
      "Ġ000": 864,
      "rans": 865,
      "Ġdo": 866,
      "any": 867,
      "Ġbefore": 868,
      "ros": 869,
      "ĠSh": 870,
      "Ġsy": 871,
      "aid": 872,
      "ĠEng": 873,
      "Ġbeing": 874,
      "Ġ10": 875,
      "uc": 876,
      "Ġep": 877,
      "Ġsupp": 878,
      "Ġthere": 879,
      "Ġyears": 880,
      "ars": 881,
      "owever": 882,
      "Ġent": 883,
      "ife": 884,
      "Ġhigh": 885,
      "Ġfound": 886,
      "ird": 887,
      "Ġno": 888,
      "Ġset": 889,
      "ines": 890,
      "iver": 891,
      "io": 892,
      "other": 893,
      "ject": 894,
      "Ġsur": 895,
      "aj": 896,
      "ten": 897,
      "Ġtra": 898,
      "Ġ12": 899,
      "ised": 900,
      "ities": 901,
      "velop": 902,
      "Ġbl": 903,
      "ale": 904,
      "Ġseries": 905,
      "Ġloc": 906,
      "Ġnumber": 907,
      "Ġpres": 908,
      "ane": 909,
      "ause": 910,
      "ode": 911,
      "ek": 912,
      "ton": 913,
      "ĠSc": 914,
      "ier": 915,
      "ise": 916,
      "Ġsever": 917,
      "ince": 918,
      "Ġboth": 919,
      "ank": 920,
      "row": 921,
      "irect": 922,
      "son": 923,
      "Ġthen": 924,
      "ĠBrit": 925,
      "iet": 926,
      "Ġ16": 927,
      "Ġepis": 928,
      "Ġincluding": 929,
      "its": 930,
      "igin": 931,
      "pr": 932,
      "Ġ/": 933,
      "Ġagainst": 934,
      "Ġwell": 935,
      "Ġbecame": 936,
      "Ġexp": 937,
      "Ġknown": 938,
      "Ġtrans": 939,
      "Ġcharac": 940,
      "ĠâĢĶ": 941,
      "ram": 942,
      "Ġback": 943,
      "Ġadd": 944,
      "Ġpop": 945,
      "Ġgo": 946,
      "urch": 947,
      "Ġdesc": 948,
      "Ġsing": 949,
      "ield": 950,
      "Ġperform": 951,
      "ained": 952,
      "Ġrece": 953,
      "ident": 954,
      "Ġem": 955,
      "ert": 956,
      "ures": 957,
      "Ġinv": 958,
      "Ġdep": 959,
      "Ġ198": 960,
      "air": 961,
      "ern": 962,
      "ather": 963,
      "ful": 964,
      "ĠZ": 965,
      "Ġmon": 966,
      "Ġmany": 967,
      "Ġmain": 968,
      "Ġstud": 969,
      "Ġlong": 970,
      "inn": 971,
      "though": 972,
      "up": 973,
      "ool": 974,
      "ĠUnited": 975,
      "led": 976,
      "ement": 977,
      "Ġ15": 978,
      "ower": 979,
      "ĠJohn": 980,
      "Ġop": 981,
      "Ġ11": 982,
      "ined": 983,
      "Ġmet": 984,
      "ober": 985,
      "ley": 986,
      "Ġ17": 987,
      "Ġcentury": 988,
      "Ġteam": 989,
      "Ġest": 990,
      "ĠAfter": 991,
      "yl": 992,
      "Ġmin": 993,
      "uch": 994,
      "ute": 995,
      "Ġdevelop": 996,
      "ĠShe": 997,
      "iam": 998,
      "Ġshow": 999,
      "elf": 1000,
      "Ġrep": 1001,
      "Ġconc": 1002,
      "ative": 1003,
      "Ġcre": 1004,
      "overn": 1005,
      "ared": 1006,
      "Ġ194": 1007,
      "Ġorigin": 1008,
      "Ġsm": 1009,
      "ivers": 1010,
      "az": 1011,
      "Ġlead": 1012,
      "Ġseveral": 1013,
      "ah": 1014,
      "Ġob": 1015,
      "Ġrev": 1016,
      "Ġmill": 1017,
      "erm": 1018,
      "ually": 1019,
      "oot": 1020,
      "Ġbegan": 1021,
      "Ġ196": 1022,
      "ired": 1023,
      "Ġdif": 1024,
      "Ġcontin": 1025,
      "Ġsign": 1026,
      "ik": 1027,
      "ĠInd": 1028,
      "ments": 1029,
      "ized": 1030,
      "Ġ197": 1031,
      "Ġdirect": 1032,
      "au": 1033,
      "Ġext": 1034,
      "ross": 1035,
      "emb": 1036,
      "der": 1037,
      "Ġpol": 1038,
      "Ġmay": 1039,
      "apt": 1040,
      "els": 1041,
      "ĠWh": 1042,
      "Ġcomple": 1043,
      "Ġart": 1044,
      "ĠBr": 1045,
      "ĠIs": 1046,
      "une": 1047,
      "til": 1048,
      "Ġcrit": 1049,
      "Ġhist": 1050,
      "Ġearly": 1051,
      "Ġcould": 1052,
      "ĠCon": 1053,
      "Ġdid": 1054,
      "Ġbel": 1055,
      "Ġcalled": 1056,
      "ued": 1057,
      "Ġnear": 1058,
      "Ġepisode": 1059,
      "yp": 1060,
      "Ġdescrib": 1061,
      "imes": 1062,
      "Ġbro": 1063,
      "roup": 1064,
      "ople": 1065,
      "Ġdown": 1066,
      "Ġrun": 1067,
      "aking": 1068,
      "Ġdisc": 1069,
      "Ġalong": 1070,
      "ccess": 1071,
      "ĠMay": 1072,
      "Ġfeat": 1073,
      "Ġinst": 1074,
      "ĠAmerican": 1075,
      "Ġsaid": 1076,
      "Ġdist": 1077,
      "Ġinf": 1078,
      "Ġimp": 1079,
      "ink": 1080,
      "Ġins": 1081,
      "ty": 1082,
      "Ġthese": 1083,
      "Ġmil": 1084,
      "ven": 1085,
      "ĠGer": 1086,
      "gest": 1087,
      "ium": 1088,
      "enn": 1089,
      "ĠBl": 1090,
      "ĠAust": 1091,
      "Ġresp": 1092,
      "ull": 1093,
      "ruct": 1094,
      "ured": 1095,
      "Ġthough": 1096,
      "Ġship": 1097,
      "ove": 1098,
      "Ġoper": 1099,
      "ĠBritish": 1100,
      "Ã©": 1101,
      "Ġuntil": 1102,
      "Ġprev": 1103,
      "itt": 1104,
      "amed": 1105,
      "Ġcar": 1106,
      "cept": 1107,
      "Ġstart": 1108,
      "Ġcity": 1109,
      "Ġgener": 1110,
      "Ġsame": 1111,
      "ains": 1112,
      "ĠWar": 1113,
      "ists": 1114,
      "ially": 1115,
      "ided": 1116,
      "Ġreleased": 1117,
      "Ġland": 1118,
      "ism": 1119,
      "ĠCar": 1120,
      "Ġown": 1121,
      "Ġwar": 1122,
      "Ġany": 1123,
      "Ġprov": 1124,
      "Ġreturn": 1125,
      "Ġair": 1126,
      "ĠThey": 1127,
      "xt": 1128,
      "erson": 1129,
      "oman": 1130,
      "Ġmusic": 1131,
      "Ġkm": 1132,
      "Ġdesign": 1133,
      "ajor": 1134,
      "ĠPl": 1135,
      "ible": 1136,
      "osed": 1137,
      "Ġsim": 1138,
      "Ġconst": 1139,
      "Ġappear": 1140,
      "Ġmillion": 1141,
      "Ġbecause": 1142,
      "Ġfam": 1143,
      "ash": 1144,
      "Ġmat": 1145,
      "Ġarea": 1146,
      "Ġuse": 1147,
      "Ġ13": 1148,
      "ĠAug": 1149,
      "ĠChr": 1150,
      "ĠAugust": 1151,
      "Ġocc": 1152,
      "Ġph": 1153,
      "Ġopen": 1154,
      "Ġlike": 1155,
      "ony": 1156,
      "Ġsuccess": 1157,
      "ole": 1158,
      "ouse": 1159,
      "erv": 1160,
      "Ġcount": 1161,
      "Ġpass": 1162,
      "oss": 1163,
      "Ġeff": 1164,
      "Ġpeople": 1165,
      "my": 1166,
      "chool": 1167,
      "und": 1168,
      "ĠSp": 1169,
      "stem": 1170,
      "ĠCl": 1171,
      "Ġoffic": 1172,
      "ets": 1173,
      "Ġsix": 1174,
      "uth": 1175,
      "ange": 1176,
      "ues": 1177,
      "Ġ195": 1178,
      "Ġsupport": 1179,
      "Ġaround": 1180,
      "Ġsmall": 1181,
      "ĠCol": 1182,
      "ĠHowever": 1183,
      "ĠSept": 1184,
      "Ġdam": 1185,
      "Ġ%": 1186,
      "Ġadv": 1187,
      "Ġmod": 1188,
      "Ġele": 1189,
      "Ġnorth": 1190,
      "ĠJu": 1191,
      "ales": 1192,
      "Ġhead": 1193,
      "ient": 1194,
      "Ġgovern": 1195,
      "Ġgroup": 1196,
      "raph": 1197,
      "Ġcharacter": 1198,
      "Ġbr": 1199,
      "Ġgr": 1200,
      "Ġed": 1201,
      "Ġeach": 1202,
      "Ġpoint": 1203,
      "ĠSeptember": 1204,
      "ĠAd": 1205,
      "wards": 1206,
      "Ġconsid": 1207,
      "ution": 1208,
      "ĠDe": 1209,
      "ĠGerman": 1210,
      "Ġfollowing": 1211,
      "ĠWorld": 1212,
      "Ġlife": 1213,
      "Ġgu": 1214,
      "ĠComm": 1215,
      "ĠAll": 1216,
      "ĠAustral": 1217,
      "anc": 1218,
      "Ġann": 1219,
      "Ġcontro": 1220,
      "ural": 1221,
      "Ġfive": 1222,
      "Ġvar": 1223,
      "ys": 1224,
      "ĠHer": 1225,
      "ĠUS": 1226,
      "Ġattack": 1227,
      "ged": 1228,
      "Ġ193": 1229,
      "ording": 1230,
      "Ġresult": 1231,
      "Ġwill": 1232,
      "ina": 1233,
      "ck": 1234,
      "ĠQ": 1235,
      "Ġever": 1236,
      "ĠPro": 1237,
      "Ġ191": 1238,
      "ĠEu": 1239,
      "Ġlarge": 1240,
      "ĠMe": 1241,
      "ĠII": 1242,
      "lish": 1243,
      "ĠNorth": 1244,
      "ling": 1245,
      "Ġbook": 1246,
      "Ġreport": 1247,
      "ont": 1248,
      "ague": 1249,
      "ĠFran": 1250,
      "ble": 1251,
      "ĠFor": 1252,
      "ox": 1253,
      "aced": 1254,
      "hel": 1255,
      "ĠJune": 1256,
      "Ġtit": 1257,
      "ended": 1258,
      "dom": 1259,
      "ilt": 1260,
      "ives": 1261,
      "Ġ14": 1262,
      "ats": 1263,
      "Ġprom": 1264,
      "eb": 1265,
      "med": 1266,
      "Ġweek": 1267,
      "ately": 1268,
      "aving": 1269,
      "ored": 1270,
      "Ġstr": 1271,
      "ĠJan": 1272,
      "Ġsince": 1273,
      "ĠStates": 1274,
      "Ġfinal": 1275,
      "Ġmajor": 1276,
      "ax": 1277,
      "Ġsouth": 1278,
      "Ġreceived": 1279,
      "ĠSouth": 1280,
      "ivision": 1281,
      "ĠGu": 1282,
      "Ġname": 1283,
      "Ġpartic": 1284,
      "ery": 1285,
      "Ġhel": 1286,
      "ology": 1287,
      "ption": 1288,
      "ĠChrist": 1289,
      "Ġcare": 1290,
      "ĠOct": 1291,
      "Ġpublic": 1292,
      "Ġrest": 1293,
      "Ġsystem": 1294,
      "ected": 1295,
      "ility": 1296,
      "ĠBe": 1297,
      "ting": 1298,
      "ĠKing": 1299,
      "Ġstate": 1300,
      "Ġbatt": 1301,
      "ae": 1302,
      "Ġwhat": 1303,
      "ages": 1304,
      "uary": 1305,
      "Ġlast": 1306,
      "rand": 1307,
      "Ġdescribed": 1308,
      "ĠOctober": 1309,
      "Ġline": 1310,
      "Ġclass": 1311,
      "Ġ$": 1312,
      "Ġdet": 1313,
      "iving": 1314,
      "raft": 1315,
      "ĠNov": 1316,
      "Ġplayed": 1317,
      "Ġprot": 1318,
      "Ġincre": 1319,
      "aur": 1320,
      "ropical": 1321,
      "Ġtook": 1322,
      "Ġmar": 1323,
      "Ġnow": 1324,
      "ified": 1325,
      "aim": 1326,
      "ĠPar": 1327,
      "ional": 1328,
      "get": 1329,
      "rote": 1330,
      "ants": 1331,
      "ody": 1332,
      "Ġ[": 1333,
      "Ġ]": 1334,
      "ively": 1335,
      "ĠYork": 1336,
      "Ġbuild": 1337,
      "Ġworld": 1338,
      "..": 1339,
      "Ġlate": 1340,
      "ĠDec": 1341,
      "yc": 1342,
      "Ġ25": 1343,
      "ĠJuly": 1344,
      "Ġwrote": 1345,
      "empt": 1346,
      "ball": 1347,
      "by": 1348,
      "esp": 1349,
      "ĠEurop": 1350,
      "ret": 1351,
      "Ġwon": 1352,
      "app": 1353,
      "ideo": 1354,
      "Ġspecies": 1355,
      "sion": 1356,
      "Ġchild": 1357,
      "ians": 1358,
      "Ġ...": 1359,
      "omet": 1360,
      "iod": 1361,
      "Ġport": 1362,
      "Ġmuch": 1363,
      "ĠCan": 1364,
      "ĠDuring": 1365,
      "Ġconf": 1366,
      "Ġserv": 1367,
      "Ġcamp": 1368,
      "ection": 1369,
      "Ġref": 1370,
      "Ġdue": 1371,
      "ech": 1372,
      "Ġshort": 1373,
      "arn": 1374,
      "Ġallow": 1375,
      "Ġsingle": 1376,
      "ĠApr": 1377,
      "ĠApril": 1378,
      "Ġdiffer": 1379,
      "Ġjust": 1380,
      "Ġdeath": 1381,
      "ically": 1382,
      "ract": 1383,
      "Ġstar": 1384,
      "Ġsl": 1385,
      "Ġgun": 1386,
      "ission": 1387,
      "omin": 1388,
      "ital": 1389,
      "ĠMc": 1390,
      "ĠAnd": 1391,
      "Ġanother": 1392,
      "Ġincluded": 1393,
      "ĠMus": 1394,
      "Ġposs": 1395,
      "ai": 1396,
      "Ġold": 1397,
      "Ġtri": 1398,
      "ham": 1399,
      "Ġstorm": 1400,
      "ĠGe": 1401,
      "Ġvis": 1402,
      "ĠJanuary": 1403,
      "Ġ30": 1404,
      "Ġlist": 1405,
      "Ġleft": 1406,
      "Ġeven": 1407,
      "Ġpar": 1408,
      "Ġwithin": 1409,
      "ĠEngland": 1410,
      "ple": 1411,
      "Ġprog": 1412,
      "Ġappro": 1413,
      "ger": 1414,
      "itions": 1415,
      "Ġnamed": 1416,
      "ops": 1417,
      "Ġbased": 1418,
      "Ġestab": 1419,
      "Ġif": 1420,
      "inc": 1421,
      "Ġalthough": 1422,
      "Ġattempt": 1423,
      "Ġtop": 1424,
      "ilar": 1425,
      "Ġtrack": 1426,
      "Ġvery": 1427,
      "Ġbelie": 1428,
      "Ġbre": 1429,
      "Ġthird": 1430,
      "ards": 1431,
      "Ġhum": 1432,
      "Ġwater": 1433,
      "ĠMarch": 1434,
      "ene": 1435,
      "Ġgames": 1436,
      "Ġorgan": 1437,
      "ched": 1438,
      "orp": 1439,
      "ently": 1440,
      "Ġbeg": 1441,
      "Ġpower": 1442,
      "Ġevent": 1443,
      "Ġprevious": 1444,
      "Ġfamily": 1445,
      "Ġschool": 1446,
      "ms": 1447,
      "Ġbest": 1448,
      "urric": 1449,
      "ulation": 1450,
      "ĠNovember": 1451,
      "ances": 1452,
      "Ġperiod": 1453,
      "Ġreview": 1454,
      "Ġway": 1455,
      "ĠHis": 1456,
      "Ġmen": 1457,
      "aster": 1458,
      "Ġexpl": 1459,
      "Ġhome": 1460,
      "ĠEurope": 1461,
      "Ġfur": 1462,
      "que": 1463,
      "Ġgovernment": 1464,
      "Ġtyp": 1465,
      "ĠBy": 1466,
      "ĠPh": 1467,
      "ience": 1468,
      "Ġturn": 1469,
      "Ġ192": 1470,
      "ĠDecember": 1471,
      "let": 1472,
      "ature": 1473,
      "Ġcap": 1474,
      "Ġthose": 1475,
      "Ġhand": 1476,
      "ĠThere": 1477,
      "avy": 1478,
      "Ġplace": 1479,
      "ached": 1480,
      "Ġmed": 1481,
      "hest": 1482,
      "ĠCity": 1483,
      "Ġstory": 1484,
      "oint": 1485,
      "aged": 1486,
      "Ġbuilt": 1487,
      "eder": 1488,
      "amb": 1489,
      "Ġgreat": 1490,
      "ense": 1491,
      "Ġdr": 1492,
      "ences": 1493,
      "Ġperson": 1494,
      "iven": 1495,
      "Ġcommand": 1496,
      "Ġ100": 1497,
      "Ġkill": 1498,
      "ĠFl": 1499,
      "ĠWhen": 1500,
      "oci": 1501,
      "Ġmonth": 1502,
      "Ġsent": 1503,
      "itary": 1504,
      "elt": 1505,
      "Ġopp": 1506,
      "Ġmake": 1507,
      "Ġoriginal": 1508,
      "iversity": 1509,
      "oad": 1510,
      "ĠÂ": 1511,
      "Ġhal": 1512,
      "Ġrequ": 1513,
      "ves": 1514,
      "ides": 1515,
      "ĠPr": 1516,
      "ĠNational": 1517,
      "Ġeng": 1518,
      "gy": 1519,
      "ness": 1520,
      "ention": 1521,
      "Ġ2009": 1522,
      "ĠOr": 1523,
      "Ġ2010": 1524,
      "Ġauth": 1525,
      "Ġvideo": 1526,
      "Ġ2008": 1527,
      "bs": 1528,
      "Ġant": 1529,
      "ison": 1530,
      "Ġmark": 1531,
      "Ġdem": 1532,
      "Ġsug": 1533,
      "ruction": 1534,
      "akes": 1535,
      "Ġpresent": 1536,
      "line": 1537,
      "Ġleg": 1538,
      "Ġclub": 1539,
      "ĠMan": 1540,
      "ĠRiver": 1541,
      "rench": 1542,
      "ival": 1543,
      "Ġview": 1544,
      "ĠBro": 1545,
      "riend": 1546,
      "oard": 1547,
      "Ġrepl": 1548,
      "ograph": 1549,
      "Ġcapt": 1550,
      "alk": 1551,
      "Ġstill": 1552,
      "Ġmoved": 1553,
      "Ġlocal": 1554,
      "Ġstand": 1555,
      "eng": 1556,
      "Ġled": 1557,
      "Ġrole": 1558,
      "ott": 1559,
      "aining": 1560,
      "ler": 1561,
      "Ġterm": 1562,
      "Ġcame": 1563,
      "aken": 1564,
      "Ġdest": 1565,
      "Ġiss": 1566,
      "ories": 1567,
      "ung": 1568,
      "side": 1569,
      "idge": 1570,
      "mp": 1571,
      "Ġdra": 1572,
      "Ġoften": 1573,
      "Ġcommon": 1574,
      "Ġaddition": 1575,
      "Ġhistory": 1576,
      "urricane": 1577,
      "Ġcaus": 1578,
      "lev": 1579,
      "sh": 1580,
      "ĠComp": 1581,
      "atter": 1582,
      "Ġtrad": 1583,
      "rew": 1584,
      "Ġfew": 1585,
      "ĠNo": 1586,
      "ĠWe": 1587,
      "ĠChar": 1588,
      "Ġsuggest": 1589,
      "lu": 1590,
      "read": 1591,
      "ister": 1592,
      "ĠAb": 1593,
      "Ġ2007": 1594,
      "Ġnext": 1595,
      "Ġeffect": 1596,
      "Ġconsidered": 1597,
      "Ġbas": 1598,
      "Ġdeb": 1599,
      "Ġplayer": 1600,
      "ĠOne": 1601,
      "ior": 1602,
      "Ġcour": 1603,
      "astern": 1604,
      "Ġmid": 1605,
      "ĠTr": 1606,
      "ĠEnglish": 1607,
      "Ġhelp": 1608,
      "ead": 1609,
      "Ġexper": 1610,
      "uted": 1611,
      "ĠFrench": 1612,
      "Ġcareer": 1613,
      "Ġside": 1614,
      "Ġsimilar": 1615,
      "Ġrecorded": 1616,
      "ĠBatt": 1617,
      "ays": 1618,
      "Ġright": 1619,
      "ĠX": 1620,
      "Ġwin": 1621,
      "Ġinit": 1622,
      "Ġimport": 1623,
      "ĠAcc": 1624,
      "Ġreal": 1625,
      "self": 1626,
      "ĠRec": 1627,
      "Ġclaim": 1628,
      "Ġcover": 1629,
      "Ġarch": 1630,
      "Ġcompany": 1631,
      "be": 1632,
      "ining": 1633,
      "Ġtown": 1634,
      "Ġpublished": 1635,
      "Ġsold": 1636,
      "Ġcontinued": 1637,
      "Ġrefer": 1638,
      "Ġexc": 1639,
      "Ġwind": 1640,
      "Ġdifferent": 1641,
      "Ġyou": 1642,
      "Ġtake": 1643,
      "Ġwithout": 1644,
      "ternational": 1645,
      "Ġsongs": 1646,
      "ĠWith": 1647,
      "yn": 1648,
      "Ġtot": 1649,
      "ĠPer": 1650,
      "ĠPort": 1651,
      "Ġroad": 1652,
      "Ġformer": 1653,
      "Ġ21": 1654,
      "Ġpolit": 1655,
      "Ġtw": 1656,
      "Ġtem": 1657,
      "ĠBar": 1658,
      "Ġheld": 1659,
      "ches": 1660,
      "ĠTe": 1661,
      "Ġmemb": 1662,
      "Ġamong": 1663,
      "Ġlevel": 1664,
      "Ġel": 1665,
      "ĠWill": 1666,
      "ning": 1667,
      "Ġfield": 1668,
      "Ġmag": 1669,
      "par": 1670,
      "Ġelect": 1671,
      "ner": 1672,
      "iment": 1673,
      "Ġav": 1674,
      "itar": 1675,
      "Ġdel": 1676,
      "uss": 1677,
      "Ġprop": 1678,
      "Ġwritten": 1679,
      "inning": 1680,
      "iter": 1681,
      "resent": 1682,
      "Ġevery": 1683,
      "ĠAm": 1684,
      "ĠState": 1685,
      "estern": 1686,
      "Ġ23": 1687,
      "ĠEar": 1688,
      "Ġcommun": 1689,
      "Ġhalf": 1690,
      "lear": 1691,
      "yle": 1692,
      "ĠDivision": 1693,
      "ampions": 1694,
      "Ġ2011": 1695,
      "Ġrelease": 1696,
      "ried": 1697,
      "Ġfurther": 1698,
      "ots": 1699,
      "Ġbecome": 1700,
      "Ġwest": 1701,
      "Ġ2006": 1702,
      "ensive": 1703,
      "ĠAccording": 1704,
      "Ġcr": 1705,
      "enc": 1706,
      "rodu": 1707,
      "Ġchurch": 1708,
      "ĠAlthough": 1709,
      "Ġstrong": 1710,
      "Ġfore": 1711,
      "Ġhowever": 1712,
      "Ġdays": 1713,
      "roy": 1714,
      "Ġfind": 1715,
      "ĠCanad": 1716,
      "Ġcur": 1717,
      "ices": 1718,
      "Ġeast": 1719,
      "ising": 1720,
      "ĠCount": 1721,
      "Ġversion": 1722,
      "Ġfoot": 1723,
      "Ġbeh": 1724,
      "Ġspe": 1725,
      "augh": 1726,
      "Ġparticular": 1727,
      "ering": 1728,
      "Ġ&": 1729,
      "Ġmy": 1730,
      "Ġlow": 1731,
      "ĠChurch": 1732,
      "ize": 1733,
      "ebru": 1734,
      "ĠGener": 1735,
      "Ġprof": 1736,
      "Ġcompet": 1737,
      "Ġposition": 1738,
      "Ġtitle": 1739,
      "Ġ24": 1740,
      "ĠWest": 1741,
      "Ġmilitary": 1742,
      "ĠRoman": 1743,
      "Ġconv": 1744,
      "Ġauthor": 1745,
      "Ġ22": 1746,
      "Ġ26": 1747,
      "Ġappe": 1748,
      "reen": 1749,
      "Ġorder": 1750,
      "ĠLeague": 1751,
      "outher": 1752,
      "Ġsol": 1753,
      "ront": 1754,
      "ittle": 1755,
      "Ġcontrol": 1756,
      "outhern": 1757,
      "Ġtimes": 1758,
      "ĠSong": 1759,
      "aces": 1760,
      "fric": 1761,
      "Ġband": 1762,
      "ĠFebru": 1763,
      "ĠFebruary": 1764,
      "Ġfre": 1765,
      "pped": 1766,
      "Ġless": 1767,
      "Ġgave": 1768,
      "Ġproject": 1769,
      "Ġvict": 1770,
      "Ġdefe": 1771,
      "ylan": 1772,
      "ĠGeor": 1773,
      "osp": 1774,
      "ĠAss": 1775,
      "Ġ!": 1776,
      "ĠDylan": 1777,
      "Ġchang": 1778,
      "Ġreported": 1779,
      "Ġmembers": 1780,
      "Ġnort": 1781,
      "ĠPark": 1782,
      "rick": 1783,
      "Ġnov": 1784,
      "Ġproduced": 1785,
      "Ġstat": 1786,
      "levision": 1787,
      "Ġtotal": 1788,
      "isc": 1789,
      "arm": 1790,
      "eter": 1791,
      "hern": 1792,
      "Ġ2012": 1793,
      "aying": 1794,
      "ĠOld": 1795,
      "Ġarr": 1796,
      "iety": 1797,
      "Ġcult": 1798,
      "Ġpopular": 1799,
      "Ġter": 1800,
      "Ġfire": 1801,
      "esc": 1802,
      "oung": 1803,
      "ailed": 1804,
      "Ġproduction": 1805,
      "urs": 1806,
      "apan": 1807,
      "Ġobs": 1808,
      "Ġtropical": 1809,
      "hem": 1810,
      "ĠSim": 1811,
      "Ġ28": 1812,
      "ĠPol": 1813,
      "ression": 1814,
      "Ġpost": 1815,
      "Ġforces": 1816,
      "ĠSte": 1817,
      "Ġcritic": 1818,
      "ford": 1819,
      "ĠHa": 1820,
      "ĠJapan": 1821,
      "Ġchildren": 1822,
      "Ġhistor": 1823,
      "Ġpat": 1824,
      "Ġhaving": 1825,
      "ush": 1826,
      "ĠEd": 1827,
      "Ġinclude": 1828,
      "ald": 1829,
      "echn": 1830,
      "ring": 1831,
      "ours": 1832,
      "Ġsurv": 1833,
      "Ġinvol": 1834,
      "Ġinflu": 1835,
      "alion": 1836,
      "ne": 1837,
      "Ġsk": 1838,
      "Ġlost": 1839,
      "rent": 1840,
      "Ġaff": 1841,
      "atic": 1842,
      "ĠSu": 1843,
      "Ġgiven": 1844,
      "Ġcountry": 1845,
      "Ġwant": 1846,
      "ably": 1847,
      "Ġrepresent": 1848,
      "work": 1849,
      "ĠEl": 1850,
      "Ġsignific": 1851,
      "ĠCent": 1852,
      "omen": 1853,
      "ĠDav": 1854,
      "Ġmanag": 1855,
      "ope": 1856,
      "ploy": 1857,
      "ĠGeneral": 1858,
      "Ġpress": 1859,
      "Ġequ": 1860,
      "vers": 1861,
      "Ġ2013": 1862,
      "ges": 1863,
      "Ġeight": 1864,
      "ĠMiss": 1865,
      "Ġcomb": 1866,
      "reet": 1867,
      "Ġsit": 1868,
      "Ġsite": 1869,
      "ades": 1870,
      "Ġseen": 1871,
      "irc": 1872,
      "Ġprogram": 1873,
      "sp": 1874,
      "ones": 1875,
      "oon": 1876,
      "Ġmaking": 1877,
      "ĠAfric": 1878,
      "Ġnever": 1879,
      "Ġmatch": 1880,
      "ration": 1881,
      "Ġfem": 1882,
      "Ġstated": 1883,
      "Ġestabl": 1884,
      "Ã¡": 1885,
      "ither": 1886,
      "Ġbody": 1887,
      "Ġplan": 1888,
      "Ġfact": 1889,
      "Ġread": 1890,
      "Ġord": 1891,
      "Ġshould": 1892,
      "ĠWhile": 1893,
      "ĠEv": 1894,
      "sequ": 1895,
      "Ġ50": 1896,
      "Ġreturned": 1897,
      "fic": 1898,
      "ator": 1899,
      "ĠUniversity": 1900,
      "ological": 1901,
      "Ġsoc": 1902,
      "Ġft": 1903,
      "aun": 1904,
      "Ġer": 1905,
      "Ġsound": 1906,
      "Ġ190": 1907,
      "Äģ": 1908,
      "rem": 1909,
      "Ġhow": 1910,
      "ape": 1911,
      "ĠThese": 1912,
      "Ġgen": 1913,
      "Ġisland": 1914,
      "ĠNe": 1915,
      "ĠAmerica": 1916,
      "Ġcou": 1917,
      "Ġstruct": 1918,
      "Ġearl": 1919,
      "Ġships": 1920,
      "Ġannoun": 1921,
      "Ġestablished": 1922,
      "ampionship": 1923,
      "Ġgod": 1924,
      "Ġground": 1925,
      "ĠJack": 1926,
      "Ġchart": 1927,
      "Ġpopulation": 1928,
      "aff": 1929,
      "ream": 1930,
      "Ġcat": 1931,
      "Ġdiv": 1932,
      "Ġreached": 1933,
      "Ġjo": 1934,
      "ground": 1935,
      "Ġ27": 1936,
      "na": 1937,
      "view": 1938,
      "reland": 1939,
      "Ġlight": 1940,
      "Ġnoted": 1941,
      "aul": 1942,
      "ki": 1943,
      "Ġaway": 1944,
      "Ġfriend": 1945,
      "ĠIreland": 1946,
      "ĠBlack": 1947,
      "ille": 1948,
      "igade": 1949,
      "used": 1950,
      "ument": 1951,
      "ination": 1952,
      "ffic": 1953,
      "ese": 1954,
      "Ġlim": 1955,
      "oll": 1956,
      "Ġthroughout": 1957,
      "Ġacross": 1958,
      "ĠReg": 1959,
      "Ġdeveloped": 1960,
      "Ġthought": 1961,
      "iec": 1962,
      "ĠMich": 1963,
      "ĠLond": 1964,
      "Ġseven": 1965,
      "Ġsomet": 1966,
      "Ġcast": 1967,
      "aint": 1968,
      "ords": 1969,
      "ster": 1970,
      "Ġgl": 1971,
      "Ġproc": 1972,
      "ĠWilliam": 1973,
      "ĠLondon": 1974,
      "Ġpra": 1975,
      "Ġrad": 1976,
      "Ġintrodu": 1977,
      "af": 1978,
      "Ġgood": 1979,
      "ĠFeder": 1980,
      "Ġusing": 1981,
      "Ġhimself": 1982,
      "Ġdevelopment": 1983,
      "Ġblack": 1984,
      "iness": 1985,
      "omb": 1986,
      "Ġhig": 1987,
      "ĠHar": 1988,
      "Ġfelt": 1989,
      "idence": 1990,
      "reek": 1991,
      "ĠAustralia": 1992,
      "Ġhuman": 1993,
      "Ġsignificant": 1994,
      "Ġide": 1995,
      "ĠAir": 1996,
      "utes": 1997,
      "aren": 1998,
      "Ġwat": 1999,
      "Ġperformed": 2000,
      "Ġbar": 2001,
      "ump": 2002,
      "Ġimportant": 2003,
      "most": 2004,
      "ivil": 2005,
      "ĠGl": 2006,
      "Ġadm": 2007,
      "ĠAtl": 2008,
      "itive": 2009,
      "Ġnight": 2010,
      "Ġwriting": 2011,
      "Ġfun": 2012,
      "ĠPal": 2013,
      "ĠRich": 2014,
      "ĠEx": 2015,
      "Ġdestroy": 2016,
      "Ġfather": 2017,
      "ĠMag": 2018,
      "Ġmiles": 2019,
      "Ġbo": 2020,
      "antic": 2021,
      "Ġtelevision": 2022,
      "ĠRoy": 2023,
      "Ġinterest": 2024,
      "Ġvarious": 2025,
      "osaur": 2026,
      "Ġareas": 2027,
      "ief": 2028,
      "Ġtour": 2029,
      "imately": 2030,
      "Ġwhite": 2031,
      "Ġmodern": 2032,
      "Ġfull": 2033,
      "field": 2034,
      "Ġten": 2035,
      "Ġdied": 2036,
      "ĠCal": 2037,
      "Ġlook": 2038,
      "rie": 2039,
      "ogn": 2040,
      "Ġenc": 2041,
      "Ġactiv": 2042,
      "ael": 2043,
      "aign": 2044,
      "Ġwent": 2045,
      "Ġlaw": 2046,
      "ĠRober": 2047
    },
    "merges": [
      [
        "Ġ",
        "t"
      ],
      [
        "h",
        "e"
      ],
      [
        "Ġ",
        "a"
      ],
      [
        "i",
        "n"
      ],
      [
        "Ġt",
        "he"
      ],
      [
        "e",
        "r"
      ],
      [
        "o",
        "n"
      ],
      [
        "Ġ",
        ","
      ],
      [
        "r",
        "e"
      ],
      [
        "Ġ",
        "s"
      ],
      [
        "e",
        "d"
      ],
      [
        "Ġ",
        "o"
      ],
      [
        "Ġ",
        "w"
      ],
      [
        "n",
        "d"
      ],
      [
        "a",
        "t"
      ],
      [
        "Ġ",
        "."
      ],
      [
        "o",
        "r"
      ],
      [
        "i",
        "t"
      ],
      [
        "Ġ",
        "c"
      ],
      [
        "e",
        "n"
      ],
      [
        "Ġ",
        "f"
      ],
      [
        "i",
        "s"
      ],
      [
        "e",
        "s"
      ],
      [
        "a",
        "r"
      ],
      [
        "Ġo",
        "f"
      ],
      [
        "Ġ",
        "b"
      ],
      [
        "a",
        "n"
      ],
      [
        "Ġ",
        "in"
      ],
      [
        "a",
        "l"
      ],
      [
        "in",
        "g"
      ],
      [
        "Ġ",
        "p"
      ],
      [
        "Ġa",
        "nd"
      ],
      [
        "a",
        "s"
      ],
      [
        "Ġt",
        "o"
      ],
      [
        "r",
        "o"
      ],
      [
        "i",
        "c"
      ],
      [
        "Ġ",
        "m"
      ],
      [
        "Ġ",
        "d"
      ],
      [
        "Ġ",
        "h"
      ],
      [
        "i",
        "on"
      ],
      [
        "l",
        "e"
      ],
      [
        "o",
        "u"
      ],
      [
        "Ġ",
        "T"
      ],
      [
        "Ġ",
        "re"
      ],
      [
        "Ġ",
        "="
      ],
      [
        "Ġ",
        "\""
      ],
      [
        "Ġ",
        "A"
      ],
      [
        "Ġ",
        "S"
      ],
      [
        "en",
        "t"
      ],
      [
        "i",
        "l"
      ],
      [
        "Ġt",
        "h"
      ],
      [
        "Ġ",
        "1"
      ],
      [
        "s",
        "t"
      ],
      [
        "Ġ",
        "C"
      ],
      [
        "e",
        "l"
      ],
      [
        "o",
        "m"
      ],
      [
        "Ġ",
        "l"
      ],
      [
        "a",
        "m"
      ],
      [
        "Ġ",
        "Ċ"
      ],
      [
        "Ġ",
        "e"
      ],
      [
        "Ġ",
        "n"
      ],
      [
        "Ġ",
        "@"
      ],
      [
        "a",
        "d"
      ],
      [
        "a",
        "c"
      ],
      [
        "Ġw",
        "as"
      ],
      [
        "Ġ",
        "M"
      ],
      [
        "u",
        "r"
      ],
      [
        "ĠT",
        "he"
      ],
      [
        "e",
        "c"
      ],
      [
        "Ġ",
        "on"
      ],
      [
        "l",
        "y"
      ],
      [
        "Ġ",
        "B"
      ],
      [
        "Ġ",
        "I"
      ],
      [
        "Ġ",
        "g"
      ],
      [
        "Ġ",
        "'"
      ],
      [
        "e",
        "t"
      ],
      [
        "o",
        "l"
      ],
      [
        "i",
        "d"
      ],
      [
        "i",
        "v"
      ],
      [
        "i",
        "m"
      ],
      [
        "Ġf",
        "or"
      ],
      [
        "i",
        "r"
      ],
      [
        "-",
        "@"
      ],
      [
        "Ġ@",
        "-@"
      ],
      [
        "i",
        "g"
      ],
      [
        "o",
        "t"
      ],
      [
        "t",
        "er"
      ],
      [
        "Ġa",
        "s"
      ],
      [
        "Ġ",
        "H"
      ],
      [
        "u",
        "s"
      ],
      [
        "o",
        "w"
      ],
      [
        "Ġs",
        "t"
      ],
      [
        "u",
        "t"
      ],
      [
        "it",
        "h"
      ],
      [
        "a",
        "y"
      ],
      [
        "Ġ",
        "2"
      ],
      [
        "Ġ",
        "P"
      ],
      [
        "at",
        "ion"
      ],
      [
        "v",
        "er"
      ],
      [
        "Ġb",
        "e"
      ],
      [
        "he",
        "r"
      ],
      [
        "Ġth",
        "at"
      ],
      [
        "Ġw",
        "ith"
      ],
      [
        "Ġ",
        "R"
      ],
      [
        "c",
        "e"
      ],
      [
        "t",
        "h"
      ],
      [
        "Ġ",
        "D"
      ],
      [
        "Ġ",
        "is"
      ],
      [
        "u",
        "n"
      ],
      [
        "e",
        "m"
      ],
      [
        "Ġ",
        "F"
      ],
      [
        "Ġw",
        "h"
      ],
      [
        "u",
        "l"
      ],
      [
        "Ġb",
        "y"
      ],
      [
        "Ġa",
        "l"
      ],
      [
        "c",
        "h"
      ],
      [
        "Ġ",
        ")"
      ],
      [
        "Ġ",
        "("
      ],
      [
        "Ġ",
        "W"
      ],
      [
        "Ġc",
        "on"
      ],
      [
        "r",
        "a"
      ],
      [
        "Ġ",
        "G"
      ],
      [
        "o",
        "s"
      ],
      [
        "Ġ",
        "L"
      ],
      [
        "Ġ",
        "N"
      ],
      [
        "Ġa",
        "t"
      ],
      [
        "er",
        "s"
      ],
      [
        "c",
        "t"
      ],
      [
        "Ġ",
        "it"
      ],
      [
        "Ġ1",
        "9"
      ],
      [
        "ro",
        "m"
      ],
      [
        "a",
        "nd"
      ],
      [
        "Ġa",
        "n"
      ],
      [
        "u",
        "m"
      ],
      [
        "es",
        "t"
      ],
      [
        "Ġ",
        "J"
      ],
      [
        "a",
        "g"
      ],
      [
        "Ġ",
        "he"
      ],
      [
        "0",
        "0"
      ],
      [
        "is",
        "t"
      ],
      [
        "a",
        "in"
      ],
      [
        "o",
        "d"
      ],
      [
        "a",
        "v"
      ],
      [
        "r",
        "i"
      ],
      [
        "Ġ",
        "E"
      ],
      [
        "Ġ",
        "O"
      ],
      [
        "Ġf",
        "rom"
      ],
      [
        "Ġc",
        "om"
      ],
      [
        "Ġh",
        "is"
      ],
      [
        "o",
        "p"
      ],
      [
        "Ġp",
        "ro"
      ],
      [
        "re",
        "s"
      ],
      [
        "i",
        "es"
      ],
      [
        "i",
        "f"
      ],
      [
        "Ġ",
        "v"
      ],
      [
        "or",
        "t"
      ],
      [
        "er",
        "e"
      ],
      [
        "il",
        "l"
      ],
      [
        "l",
        "d"
      ],
      [
        "Ġd",
        "e"
      ],
      [
        "p",
        "p"
      ],
      [
        "Ġs",
        "u"
      ],
      [
        "o",
        "re"
      ],
      [
        "ĠI",
        "n"
      ],
      [
        "Ġ",
        "r"
      ],
      [
        "Ġs",
        "e"
      ],
      [
        "Ġw",
        "ere"
      ],
      [
        "e",
        "w"
      ],
      [
        "on",
        "g"
      ],
      [
        "ig",
        "h"
      ],
      [
        "ar",
        "d"
      ],
      [
        "at",
        "e"
      ],
      [
        "al",
        "l"
      ],
      [
        "ar",
        "t"
      ],
      [
        "a",
        "k"
      ],
      [
        "ic",
        "h"
      ],
      [
        "Ġc",
        "h"
      ],
      [
        "Ġo",
        "r"
      ],
      [
        "a",
        "b"
      ],
      [
        "an",
        "t"
      ],
      [
        "u",
        "d"
      ],
      [
        "o",
        "c"
      ],
      [
        "b",
        "er"
      ],
      [
        "Ġe",
        "x"
      ],
      [
        "g",
        "h"
      ],
      [
        "it",
        "y"
      ],
      [
        "at",
        "ed"
      ],
      [
        "p",
        "t"
      ],
      [
        "es",
        "s"
      ],
      [
        "e",
        "ar"
      ],
      [
        "Ġ",
        "K"
      ],
      [
        "Ġp",
        "l"
      ],
      [
        "am",
        "e"
      ],
      [
        "q",
        "u"
      ],
      [
        "iv",
        "e"
      ],
      [
        "ro",
        "u"
      ],
      [
        "Ġa",
        "re"
      ],
      [
        "Ġ",
        "â"
      ],
      [
        "Ġs",
        "h"
      ],
      [
        "Ġ",
        "k"
      ],
      [
        "ac",
        "k"
      ],
      [
        "ec",
        "t"
      ],
      [
        "Ġâ",
        "Ģ"
      ],
      [
        "Ġ",
        "U"
      ],
      [
        "Ġh",
        "ad"
      ],
      [
        "s",
        "e"
      ],
      [
        "Ġwh",
        "ich"
      ],
      [
        "re",
        "d"
      ],
      [
        "o",
        "v"
      ],
      [
        "ĠS",
        "t"
      ],
      [
        "as",
        "t"
      ],
      [
        "Ġs",
        "p"
      ],
      [
        "i",
        "an"
      ],
      [
        "Ġ",
        "y"
      ],
      [
        "m",
        "ent"
      ],
      [
        "Ġ",
        "le"
      ],
      [
        "Ġn",
        "ot"
      ],
      [
        "g",
        "e"
      ],
      [
        "or",
        "d"
      ],
      [
        "r",
        "it"
      ],
      [
        "i",
        "p"
      ],
      [
        "in",
        "e"
      ],
      [
        "el",
        "l"
      ],
      [
        "al",
        "ly"
      ],
      [
        "ou",
        "r"
      ],
      [
        "o",
        "st"
      ],
      [
        "igh",
        "t"
      ],
      [
        "t",
        "her"
      ],
      [
        "a",
        "p"
      ],
      [
        "Ġ",
        "u"
      ],
      [
        "is",
        "h"
      ],
      [
        "ĠC",
        "h"
      ],
      [
        "ou",
        "n"
      ],
      [
        "i",
        "a"
      ],
      [
        "Ġ",
        "3"
      ],
      [
        "av",
        "e"
      ],
      [
        "ar",
        "y"
      ],
      [
        "u",
        "st"
      ],
      [
        "o",
        "g"
      ],
      [
        "Ġ2",
        "00"
      ],
      [
        "Ġ",
        "un"
      ],
      [
        "ou",
        "s"
      ],
      [
        "ir",
        "st"
      ],
      [
        "Ġ",
        "V"
      ],
      [
        "c",
        "c"
      ],
      [
        "Ġin",
        "c"
      ],
      [
        "Ġ",
        ";"
      ],
      [
        "Ġcom",
        "p"
      ],
      [
        "r",
        "u"
      ],
      [
        "ion",
        "s"
      ],
      [
        "Ġthe",
        "ir"
      ],
      [
        "Ġb",
        "ut"
      ],
      [
        "id",
        "e"
      ],
      [
        "u",
        "re"
      ],
      [
        "s",
        "o"
      ],
      [
        "Ġcon",
        "t"
      ],
      [
        "Ġin",
        "t"
      ],
      [
        "f",
        "ter"
      ],
      [
        "ic",
        "al"
      ],
      [
        "i",
        "al"
      ],
      [
        "Ġa",
        "r"
      ],
      [
        "Ġf",
        "irst"
      ],
      [
        "ou",
        "ld"
      ],
      [
        "Ġit",
        "s"
      ],
      [
        "he",
        "d"
      ],
      [
        "ĠâĢ",
        "ĵ"
      ],
      [
        "Ġw",
        "he"
      ],
      [
        "w",
        "o"
      ],
      [
        "ou",
        "t"
      ],
      [
        "u",
        "b"
      ],
      [
        "Ġ2",
        "0"
      ],
      [
        "f",
        "f"
      ],
      [
        "Ġ",
        ":"
      ],
      [
        "u",
        "e"
      ],
      [
        "Ġ",
        "her"
      ],
      [
        "ow",
        "n"
      ],
      [
        "o",
        "k"
      ],
      [
        "Ġal",
        "so"
      ],
      [
        "Ġc",
        "l"
      ],
      [
        "p",
        "er"
      ],
      [
        "ig",
        "n"
      ],
      [
        "at",
        "er"
      ],
      [
        "r",
        "an"
      ],
      [
        "or",
        "m"
      ],
      [
        "i",
        "e"
      ],
      [
        "om",
        "e"
      ],
      [
        "or",
        "k"
      ],
      [
        "as",
        "s"
      ],
      [
        "i",
        "re"
      ],
      [
        "e",
        "nd"
      ],
      [
        "Ġre",
        "s"
      ],
      [
        "Ġa",
        "b"
      ],
      [
        "Ġa",
        "d"
      ],
      [
        "Ġ",
        "us"
      ],
      [
        "r",
        "y"
      ],
      [
        "Ġre",
        "c"
      ],
      [
        "Ġh",
        "ave"
      ],
      [
        "ag",
        "e"
      ],
      [
        "ĠH",
        "e"
      ],
      [
        "Ġ",
        "4"
      ],
      [
        "Ġ",
        "ro"
      ],
      [
        "m",
        "er"
      ],
      [
        "Ġon",
        "e"
      ],
      [
        "on",
        "d"
      ],
      [
        "l",
        "ow"
      ],
      [
        "Ġh",
        "as"
      ],
      [
        "ĠT",
        "h"
      ],
      [
        "d",
        "u"
      ],
      [
        "Ġ",
        "5"
      ],
      [
        "Ġp",
        "er"
      ],
      [
        "Ġbe",
        "en"
      ],
      [
        "im",
        "e"
      ],
      [
        "Ġt",
        "wo"
      ],
      [
        "en",
        "ce"
      ],
      [
        "l",
        "and"
      ],
      [
        "Ġ1",
        "8"
      ],
      [
        ".",
        "@"
      ],
      [
        "Ġ@",
        ".@"
      ],
      [
        "ul",
        "t"
      ],
      [
        "re",
        "e"
      ],
      [
        "ou",
        "gh"
      ],
      [
        "i",
        "le"
      ],
      [
        "Ġwh",
        "o"
      ],
      [
        "ĠA",
        "l"
      ],
      [
        "Ġs",
        "c"
      ],
      [
        "ur",
        "ing"
      ],
      [
        "p",
        "l"
      ],
      [
        "or",
        "y"
      ],
      [
        "it",
        "ion"
      ],
      [
        "r",
        "ic"
      ],
      [
        "ation",
        "s"
      ],
      [
        "Ġd",
        "is"
      ],
      [
        "Ġth",
        "is"
      ],
      [
        "Ġb",
        "ec"
      ],
      [
        "Ġa",
        "pp"
      ],
      [
        "i",
        "z"
      ],
      [
        "ĠI",
        "t"
      ],
      [
        "a",
        "re"
      ],
      [
        "ac",
        "h"
      ],
      [
        "l",
        "ud"
      ],
      [
        "ad",
        "e"
      ],
      [
        "Ġpl",
        "ay"
      ],
      [
        "Ġ",
        "j"
      ],
      [
        "Ġm",
        "an"
      ],
      [
        "ac",
        "t"
      ],
      [
        "el",
        "y"
      ],
      [
        "Ġp",
        "art"
      ],
      [
        "Ġd",
        "es"
      ],
      [
        "Ġa",
        "g"
      ],
      [
        "Ġthe",
        "y"
      ],
      [
        "Ġy",
        "ear"
      ],
      [
        "oun",
        "t"
      ],
      [
        "Ġ20",
        "1"
      ],
      [
        "Ġo",
        "ver"
      ],
      [
        "Ġo",
        "ther"
      ],
      [
        "ou",
        "nd"
      ],
      [
        "Ġa",
        "fter"
      ],
      [
        "i",
        "b"
      ],
      [
        "o",
        "ver"
      ],
      [
        "Ġs",
        "er"
      ],
      [
        "Ġ",
        "en"
      ],
      [
        "Ġof",
        "f"
      ],
      [
        "Ġ",
        "im"
      ],
      [
        "ct",
        "ion"
      ],
      [
        "Ġ",
        "Y"
      ],
      [
        "k",
        "e"
      ],
      [
        "it",
        "e"
      ],
      [
        ",",
        "@"
      ],
      [
        "Ġ@",
        ",@"
      ],
      [
        "t",
        "e"
      ],
      [
        "ur",
        "n"
      ],
      [
        "Ġinc",
        "lud"
      ],
      [
        "res",
        "s"
      ],
      [
        "an",
        "ce"
      ],
      [
        "an",
        "g"
      ],
      [
        "Ġat",
        "t"
      ],
      [
        "ic",
        "e"
      ],
      [
        "ac",
        "e"
      ],
      [
        "ar",
        "k"
      ],
      [
        "Ġo",
        "ut"
      ],
      [
        "w",
        "n"
      ],
      [
        "p",
        "h"
      ],
      [
        "em",
        "ber"
      ],
      [
        "Ġp",
        "re"
      ],
      [
        "Ġu",
        "p"
      ],
      [
        "en",
        "s"
      ],
      [
        "m",
        "an"
      ],
      [
        "Ġe",
        "v"
      ],
      [
        "Ġt",
        "ime"
      ],
      [
        "nd",
        "er"
      ],
      [
        "rou",
        "gh"
      ],
      [
        "c",
        "ed"
      ],
      [
        "Ġf",
        "in"
      ],
      [
        "Ġint",
        "o"
      ],
      [
        "on",
        "e"
      ],
      [
        "p",
        "ort"
      ],
      [
        "rou",
        "nd"
      ],
      [
        "w",
        "e"
      ],
      [
        "re",
        "n"
      ],
      [
        "l",
        "es"
      ],
      [
        "in",
        "t"
      ],
      [
        "ĠO",
        "n"
      ],
      [
        "v",
        "el"
      ],
      [
        "Ġcom",
        "m"
      ],
      [
        "Ġs",
        "he"
      ],
      [
        "as",
        "on"
      ],
      [
        "am",
        "p"
      ],
      [
        "Ġt",
        "e"
      ],
      [
        "Ġw",
        "ould"
      ],
      [
        "w",
        "ard"
      ],
      [
        "Ġm",
        "ore"
      ],
      [
        "Ġ",
        "6"
      ],
      [
        "i",
        "ed"
      ],
      [
        "os",
        "e"
      ],
      [
        "ri",
        "b"
      ],
      [
        "ĠU",
        "n"
      ],
      [
        "Ġal",
        "l"
      ],
      [
        "ing",
        "s"
      ],
      [
        "ter",
        "n"
      ],
      [
        "c",
        "es"
      ],
      [
        "ab",
        "le"
      ],
      [
        "Ġw",
        "e"
      ],
      [
        "it",
        "ed"
      ],
      [
        "e",
        "ver"
      ],
      [
        "ent",
        "s"
      ],
      [
        "Ġh",
        "im"
      ],
      [
        "as",
        "ed"
      ],
      [
        "or",
        "s"
      ],
      [
        "o",
        "y"
      ],
      [
        "o",
        "od"
      ],
      [
        "Ġc",
        "ent"
      ],
      [
        "i",
        "x"
      ],
      [
        "as",
        "e"
      ],
      [
        "il",
        "d"
      ],
      [
        "ĠA",
        "n"
      ],
      [
        "Ġ",
        "7"
      ],
      [
        "Ġw",
        "ork"
      ],
      [
        "at",
        "es"
      ],
      [
        "i",
        "ous"
      ],
      [
        "at",
        "h"
      ],
      [
        "Ġp",
        "o"
      ],
      [
        "ro",
        "p"
      ],
      [
        "ol",
        "d"
      ],
      [
        "al",
        "s"
      ],
      [
        "is",
        "s"
      ],
      [
        "e",
        "y"
      ],
      [
        "ic",
        "t"
      ],
      [
        "Ġf",
        "e"
      ],
      [
        "Ġthe",
        "m"
      ],
      [
        "g",
        "an"
      ],
      [
        "Ġs",
        "ec"
      ],
      [
        "Ġb",
        "et"
      ],
      [
        "Ġwhe",
        "n"
      ],
      [
        "Ġs",
        "ong"
      ],
      [
        "Ġre",
        "m"
      ],
      [
        "e",
        "p"
      ],
      [
        "f",
        "orm"
      ],
      [
        "a",
        "il"
      ],
      [
        "f",
        "er"
      ],
      [
        "Ġe",
        "ar"
      ],
      [
        "ub",
        "l"
      ],
      [
        "a",
        "w"
      ],
      [
        "Ġk",
        "n"
      ],
      [
        "ak",
        "e"
      ],
      [
        "a",
        "us"
      ],
      [
        "Ġm",
        "ost"
      ],
      [
        "Ġcon",
        "s"
      ],
      [
        "Ġd",
        "uring"
      ],
      [
        "ĠA",
        "s"
      ],
      [
        "or",
        "th"
      ],
      [
        "Ġn",
        "ew"
      ],
      [
        "er",
        "ed"
      ],
      [
        "il",
        "m"
      ],
      [
        "v",
        "ed"
      ],
      [
        "at",
        "t"
      ],
      [
        "Ġon",
        "ly"
      ],
      [
        "Ġ",
        "9"
      ],
      [
        "Ġd",
        "ec"
      ],
      [
        "Ġ",
        "8"
      ],
      [
        "ic",
        "k"
      ],
      [
        "Ġg",
        "ame"
      ],
      [
        "on",
        "s"
      ],
      [
        "u",
        "g"
      ],
      [
        "Ġt",
        "r"
      ],
      [
        "f",
        "t"
      ],
      [
        "ot",
        "h"
      ],
      [
        "o",
        "ok"
      ],
      [
        "ĠM",
        "ar"
      ],
      [
        "re",
        "at"
      ],
      [
        "w",
        "ay"
      ],
      [
        "Ġc",
        "an"
      ],
      [
        "ol",
        "low"
      ],
      [
        "ou",
        "th"
      ],
      [
        "we",
        "en"
      ],
      [
        "ĠE",
        "n"
      ],
      [
        "Ġ19",
        "9"
      ],
      [
        "ter",
        "s"
      ],
      [
        "Ġre",
        "l"
      ],
      [
        "in",
        "d"
      ],
      [
        "Ġab",
        "out"
      ],
      [
        "Ġse",
        "ason"
      ],
      [
        "Ġag",
        "ain"
      ],
      [
        "r",
        "al"
      ],
      [
        "Ġth",
        "ree"
      ],
      [
        "ation",
        "al"
      ],
      [
        "Ġu",
        "nder"
      ],
      [
        "ul",
        "ar"
      ],
      [
        "Ġm",
        "e"
      ],
      [
        "Ġth",
        "an"
      ],
      [
        "ĠC",
        "om"
      ],
      [
        "ĠA",
        "r"
      ],
      [
        "h",
        "ip"
      ],
      [
        "o",
        "b"
      ],
      [
        "Ġn",
        "e"
      ],
      [
        "Ġbet",
        "ween"
      ],
      [
        "Ġf",
        "l"
      ],
      [
        "h",
        "n"
      ],
      [
        "v",
        "e"
      ],
      [
        "Ġch",
        "ar"
      ],
      [
        "Ġc",
        "ol"
      ],
      [
        "Ġrec",
        "ord"
      ],
      [
        "i",
        "ew"
      ],
      [
        "r",
        "on"
      ],
      [
        "f",
        "ore"
      ],
      [
        "Ġth",
        "rough"
      ],
      [
        "is",
        "ion"
      ],
      [
        "or",
        "n"
      ],
      [
        "Ġ",
        "00"
      ],
      [
        "oc",
        "k"
      ],
      [
        "Ġ",
        "ver"
      ],
      [
        "Ġl",
        "ater"
      ],
      [
        "Ġn",
        "um"
      ],
      [
        "Ġe",
        "nd"
      ],
      [
        "ol",
        "og"
      ],
      [
        "am",
        "es"
      ],
      [
        "Ġp",
        "os"
      ],
      [
        "Ġw",
        "rit"
      ],
      [
        "Ġpro",
        "du"
      ],
      [
        "Ġwh",
        "ile"
      ],
      [
        "Ġa",
        "ct"
      ],
      [
        "Ġre",
        "le"
      ],
      [
        "Ġf",
        "ilm"
      ],
      [
        "is",
        "hed"
      ],
      [
        "Ġp",
        "r"
      ],
      [
        "an",
        "s"
      ],
      [
        "Ġre",
        "g"
      ],
      [
        "Ġfor",
        "m"
      ],
      [
        "Ġas",
        "s"
      ],
      [
        "ĠS",
        "e"
      ],
      [
        "ur",
        "y"
      ],
      [
        "t",
        "ed"
      ],
      [
        "t",
        "s"
      ],
      [
        "Ġm",
        "ade"
      ],
      [
        "Ġsu",
        "b"
      ],
      [
        "Ġp",
        "e"
      ],
      [
        "Ġs",
        "o"
      ],
      [
        "or",
        "ld"
      ],
      [
        "Ġre",
        "t"
      ],
      [
        "ĠN",
        "ew"
      ],
      [
        "Ġsp",
        "ec"
      ],
      [
        "Ġa",
        "cc"
      ],
      [
        "Ġ",
        "qu"
      ],
      [
        "Ġwhe",
        "re"
      ],
      [
        "en",
        "er"
      ],
      [
        "Ġm",
        "ov"
      ],
      [
        "he",
        "s"
      ],
      [
        "mer",
        "ic"
      ],
      [
        "at",
        "ing"
      ],
      [
        "Ġin",
        "ter"
      ],
      [
        "ĠL",
        "e"
      ],
      [
        "ĠA",
        "meric"
      ],
      [
        "Ġ",
        "ra"
      ],
      [
        "Ġs",
        "ome"
      ],
      [
        "Ġc",
        "o"
      ],
      [
        "Ġl",
        "ar"
      ],
      [
        "Ġb",
        "u"
      ],
      [
        "Ġde",
        "f"
      ],
      [
        "b",
        "um"
      ],
      [
        "Ġa",
        "c"
      ],
      [
        "Ġm",
        "us"
      ],
      [
        "Ġf",
        "ollow"
      ],
      [
        "ĠA",
        "t"
      ],
      [
        "in",
        "s"
      ],
      [
        "iv",
        "ed"
      ],
      [
        "if",
        "ic"
      ],
      [
        "u",
        "al"
      ],
      [
        "Ġa",
        "m"
      ],
      [
        "Ġsu",
        "ch"
      ],
      [
        "Ġsec",
        "ond"
      ],
      [
        "i",
        "ke"
      ],
      [
        "Ġf",
        "our"
      ],
      [
        "Ġin",
        "d"
      ],
      [
        "an",
        "n"
      ],
      [
        "he",
        "n"
      ],
      [
        "Ġus",
        "ed"
      ],
      [
        "ĠR",
        "e"
      ],
      [
        "ic",
        "s"
      ],
      [
        "le",
        "ct"
      ],
      [
        "Ġd",
        "ay"
      ],
      [
        "i",
        "el"
      ],
      [
        "il",
        "y"
      ],
      [
        "ĠTh",
        "is"
      ],
      [
        "Ġ",
        "0"
      ],
      [
        "Ġp",
        "ubl"
      ],
      [
        "Ġc",
        "all"
      ],
      [
        "ĠJ",
        "o"
      ],
      [
        "l",
        "l"
      ],
      [
        "Ġal",
        "bum"
      ],
      [
        "Ġ00",
        "0"
      ],
      [
        "ran",
        "s"
      ],
      [
        "Ġd",
        "o"
      ],
      [
        "an",
        "y"
      ],
      [
        "Ġbe",
        "fore"
      ],
      [
        "ro",
        "s"
      ],
      [
        "ĠS",
        "h"
      ],
      [
        "Ġs",
        "y"
      ],
      [
        "a",
        "id"
      ],
      [
        "ĠEn",
        "g"
      ],
      [
        "Ġbe",
        "ing"
      ],
      [
        "Ġ1",
        "0"
      ],
      [
        "u",
        "c"
      ],
      [
        "Ġe",
        "p"
      ],
      [
        "Ġsu",
        "pp"
      ],
      [
        "Ġthe",
        "re"
      ],
      [
        "Ġyear",
        "s"
      ],
      [
        "ar",
        "s"
      ],
      [
        "ow",
        "ever"
      ],
      [
        "Ġ",
        "ent"
      ],
      [
        "if",
        "e"
      ],
      [
        "Ġh",
        "igh"
      ],
      [
        "Ġf",
        "ound"
      ],
      [
        "ir",
        "d"
      ],
      [
        "Ġn",
        "o"
      ],
      [
        "Ġs",
        "et"
      ],
      [
        "in",
        "es"
      ],
      [
        "iv",
        "er"
      ],
      [
        "i",
        "o"
      ],
      [
        "ot",
        "her"
      ],
      [
        "j",
        "ect"
      ],
      [
        "Ġs",
        "ur"
      ],
      [
        "a",
        "j"
      ],
      [
        "t",
        "en"
      ],
      [
        "Ġt",
        "ra"
      ],
      [
        "Ġ1",
        "2"
      ],
      [
        "is",
        "ed"
      ],
      [
        "it",
        "ies"
      ],
      [
        "vel",
        "op"
      ],
      [
        "Ġb",
        "l"
      ],
      [
        "al",
        "e"
      ],
      [
        "Ġser",
        "ies"
      ],
      [
        "Ġl",
        "oc"
      ],
      [
        "Ġnum",
        "ber"
      ],
      [
        "Ġp",
        "res"
      ],
      [
        "an",
        "e"
      ],
      [
        "aus",
        "e"
      ],
      [
        "od",
        "e"
      ],
      [
        "e",
        "k"
      ],
      [
        "t",
        "on"
      ],
      [
        "ĠS",
        "c"
      ],
      [
        "i",
        "er"
      ],
      [
        "is",
        "e"
      ],
      [
        "Ġse",
        "ver"
      ],
      [
        "in",
        "ce"
      ],
      [
        "Ġb",
        "oth"
      ],
      [
        "an",
        "k"
      ],
      [
        "ro",
        "w"
      ],
      [
        "ire",
        "ct"
      ],
      [
        "s",
        "on"
      ],
      [
        "Ġthe",
        "n"
      ],
      [
        "ĠB",
        "rit"
      ],
      [
        "i",
        "et"
      ],
      [
        "Ġ1",
        "6"
      ],
      [
        "Ġep",
        "is"
      ],
      [
        "Ġinclud",
        "ing"
      ],
      [
        "it",
        "s"
      ],
      [
        "ig",
        "in"
      ],
      [
        "p",
        "r"
      ],
      [
        "Ġ",
        "/"
      ],
      [
        "Ġagain",
        "st"
      ],
      [
        "Ġw",
        "ell"
      ],
      [
        "Ġbec",
        "ame"
      ],
      [
        "Ġex",
        "p"
      ],
      [
        "Ġkn",
        "own"
      ],
      [
        "Ġt",
        "rans"
      ],
      [
        "Ġchar",
        "ac"
      ],
      [
        "ĠâĢ",
        "Ķ"
      ],
      [
        "r",
        "am"
      ],
      [
        "Ġb",
        "ack"
      ],
      [
        "Ġad",
        "d"
      ],
      [
        "Ġp",
        "op"
      ],
      [
        "Ġg",
        "o"
      ],
      [
        "ur",
        "ch"
      ],
      [
        "Ġdes",
        "c"
      ],
      [
        "Ġs",
        "ing"
      ],
      [
        "iel",
        "d"
      ],
      [
        "Ġper",
        "form"
      ],
      [
        "ain",
        "ed"
      ],
      [
        "Ġre",
        "ce"
      ],
      [
        "id",
        "ent"
      ],
      [
        "Ġe",
        "m"
      ],
      [
        "er",
        "t"
      ],
      [
        "u",
        "res"
      ],
      [
        "Ġin",
        "v"
      ],
      [
        "Ġde",
        "p"
      ],
      [
        "Ġ19",
        "8"
      ],
      [
        "a",
        "ir"
      ],
      [
        "er",
        "n"
      ],
      [
        "at",
        "her"
      ],
      [
        "f",
        "ul"
      ],
      [
        "Ġ",
        "Z"
      ],
      [
        "Ġm",
        "on"
      ],
      [
        "Ġman",
        "y"
      ],
      [
        "Ġm",
        "ain"
      ],
      [
        "Ġst",
        "ud"
      ],
      [
        "Ġl",
        "ong"
      ],
      [
        "in",
        "n"
      ],
      [
        "th",
        "ough"
      ],
      [
        "u",
        "p"
      ],
      [
        "o",
        "ol"
      ],
      [
        "ĠUn",
        "ited"
      ],
      [
        "l",
        "ed"
      ],
      [
        "em",
        "ent"
      ],
      [
        "Ġ1",
        "5"
      ],
      [
        "ow",
        "er"
      ],
      [
        "ĠJo",
        "hn"
      ],
      [
        "Ġo",
        "p"
      ],
      [
        "Ġ1",
        "1"
      ],
      [
        "in",
        "ed"
      ],
      [
        "Ġm",
        "et"
      ],
      [
        "o",
        "ber"
      ],
      [
        "le",
        "y"
      ],
      [
        "Ġ1",
        "7"
      ],
      [
        "Ġcent",
        "ury"
      ],
      [
        "Ġte",
        "am"
      ],
      [
        "Ġ",
        "est"
      ],
      [
        "ĠA",
        "fter"
      ],
      [
        "y",
        "l"
      ],
      [
        "Ġm",
        "in"
      ],
      [
        "u",
        "ch"
      ],
      [
        "ut",
        "e"
      ],
      [
        "Ġde",
        "velop"
      ],
      [
        "ĠS",
        "he"
      ],
      [
        "i",
        "am"
      ],
      [
        "Ġsh",
        "ow"
      ],
      [
        "el",
        "f"
      ],
      [
        "Ġre",
        "p"
      ],
      [
        "Ġcon",
        "c"
      ],
      [
        "at",
        "ive"
      ],
      [
        "Ġc",
        "re"
      ],
      [
        "over",
        "n"
      ],
      [
        "a",
        "red"
      ],
      [
        "Ġ19",
        "4"
      ],
      [
        "Ġor",
        "igin"
      ],
      [
        "Ġs",
        "m"
      ],
      [
        "iv",
        "ers"
      ],
      [
        "a",
        "z"
      ],
      [
        "Ġle",
        "ad"
      ],
      [
        "Ġsever",
        "al"
      ],
      [
        "a",
        "h"
      ],
      [
        "Ġo",
        "b"
      ],
      [
        "Ġre",
        "v"
      ],
      [
        "Ġm",
        "ill"
      ],
      [
        "er",
        "m"
      ],
      [
        "u",
        "ally"
      ],
      [
        "o",
        "ot"
      ],
      [
        "Ġbe",
        "gan"
      ],
      [
        "Ġ19",
        "6"
      ],
      [
        "i",
        "red"
      ],
      [
        "Ġd",
        "if"
      ],
      [
        "Ġcont",
        "in"
      ],
      [
        "Ġs",
        "ign"
      ],
      [
        "i",
        "k"
      ],
      [
        "ĠI",
        "nd"
      ],
      [
        "ment",
        "s"
      ],
      [
        "iz",
        "ed"
      ],
      [
        "Ġ19",
        "7"
      ],
      [
        "Ġd",
        "irect"
      ],
      [
        "a",
        "u"
      ],
      [
        "Ġex",
        "t"
      ],
      [
        "ros",
        "s"
      ],
      [
        "em",
        "b"
      ],
      [
        "d",
        "er"
      ],
      [
        "Ġp",
        "ol"
      ],
      [
        "Ġm",
        "ay"
      ],
      [
        "a",
        "pt"
      ],
      [
        "el",
        "s"
      ],
      [
        "ĠW",
        "h"
      ],
      [
        "Ġcomp",
        "le"
      ],
      [
        "Ġar",
        "t"
      ],
      [
        "ĠB",
        "r"
      ],
      [
        "ĠI",
        "s"
      ],
      [
        "un",
        "e"
      ],
      [
        "t",
        "il"
      ],
      [
        "Ġc",
        "rit"
      ],
      [
        "Ġh",
        "ist"
      ],
      [
        "Ġear",
        "ly"
      ],
      [
        "Ġc",
        "ould"
      ],
      [
        "ĠC",
        "on"
      ],
      [
        "Ġd",
        "id"
      ],
      [
        "Ġb",
        "el"
      ],
      [
        "Ġcall",
        "ed"
      ],
      [
        "u",
        "ed"
      ],
      [
        "Ġn",
        "ear"
      ],
      [
        "Ġepis",
        "ode"
      ],
      [
        "y",
        "p"
      ],
      [
        "Ġdesc",
        "rib"
      ],
      [
        "im",
        "es"
      ],
      [
        "Ġb",
        "ro"
      ],
      [
        "rou",
        "p"
      ],
      [
        "op",
        "le"
      ],
      [
        "Ġd",
        "own"
      ],
      [
        "Ġr",
        "un"
      ],
      [
        "ak",
        "ing"
      ],
      [
        "Ġdis",
        "c"
      ],
      [
        "Ġal",
        "ong"
      ],
      [
        "cc",
        "ess"
      ],
      [
        "ĠM",
        "ay"
      ],
      [
        "Ġfe",
        "at"
      ],
      [
        "Ġin",
        "st"
      ],
      [
        "ĠAmeric",
        "an"
      ],
      [
        "Ġs",
        "aid"
      ],
      [
        "Ġd",
        "ist"
      ],
      [
        "Ġin",
        "f"
      ],
      [
        "Ġim",
        "p"
      ],
      [
        "in",
        "k"
      ],
      [
        "Ġin",
        "s"
      ],
      [
        "t",
        "y"
      ],
      [
        "Ġthe",
        "se"
      ],
      [
        "Ġm",
        "il"
      ],
      [
        "v",
        "en"
      ],
      [
        "ĠG",
        "er"
      ],
      [
        "g",
        "est"
      ],
      [
        "i",
        "um"
      ],
      [
        "en",
        "n"
      ],
      [
        "ĠB",
        "l"
      ],
      [
        "ĠA",
        "ust"
      ],
      [
        "Ġres",
        "p"
      ],
      [
        "ul",
        "l"
      ],
      [
        "ru",
        "ct"
      ],
      [
        "u",
        "red"
      ],
      [
        "Ġth",
        "ough"
      ],
      [
        "Ġsh",
        "ip"
      ],
      [
        "ov",
        "e"
      ],
      [
        "Ġo",
        "per"
      ],
      [
        "ĠBrit",
        "ish"
      ],
      [
        "Ã",
        "©"
      ],
      [
        "Ġun",
        "til"
      ],
      [
        "Ġpre",
        "v"
      ],
      [
        "it",
        "t"
      ],
      [
        "am",
        "ed"
      ],
      [
        "Ġc",
        "ar"
      ],
      [
        "ce",
        "pt"
      ],
      [
        "Ġst",
        "art"
      ],
      [
        "Ġc",
        "ity"
      ],
      [
        "Ġg",
        "ener"
      ],
      [
        "Ġs",
        "ame"
      ],
      [
        "ain",
        "s"
      ],
      [
        "ĠW",
        "ar"
      ],
      [
        "ist",
        "s"
      ],
      [
        "i",
        "ally"
      ],
      [
        "id",
        "ed"
      ],
      [
        "Ġrele",
        "ased"
      ],
      [
        "Ġl",
        "and"
      ],
      [
        "is",
        "m"
      ],
      [
        "ĠC",
        "ar"
      ],
      [
        "Ġo",
        "wn"
      ],
      [
        "Ġw",
        "ar"
      ],
      [
        "Ġan",
        "y"
      ],
      [
        "Ġpro",
        "v"
      ],
      [
        "Ġret",
        "urn"
      ],
      [
        "Ġa",
        "ir"
      ],
      [
        "ĠThe",
        "y"
      ],
      [
        "x",
        "t"
      ],
      [
        "ers",
        "on"
      ],
      [
        "om",
        "an"
      ],
      [
        "Ġmus",
        "ic"
      ],
      [
        "Ġk",
        "m"
      ],
      [
        "Ġdes",
        "ign"
      ],
      [
        "aj",
        "or"
      ],
      [
        "ĠP",
        "l"
      ],
      [
        "ib",
        "le"
      ],
      [
        "os",
        "ed"
      ],
      [
        "Ġs",
        "im"
      ],
      [
        "Ġcon",
        "st"
      ],
      [
        "Ġapp",
        "ear"
      ],
      [
        "Ġmill",
        "ion"
      ],
      [
        "Ġbec",
        "ause"
      ],
      [
        "Ġf",
        "am"
      ],
      [
        "as",
        "h"
      ],
      [
        "Ġm",
        "at"
      ],
      [
        "Ġare",
        "a"
      ],
      [
        "Ġus",
        "e"
      ],
      [
        "Ġ1",
        "3"
      ],
      [
        "ĠA",
        "ug"
      ],
      [
        "ĠCh",
        "r"
      ],
      [
        "ĠAug",
        "ust"
      ],
      [
        "Ġo",
        "cc"
      ],
      [
        "Ġp",
        "h"
      ],
      [
        "Ġop",
        "en"
      ],
      [
        "Ġl",
        "ike"
      ],
      [
        "on",
        "y"
      ],
      [
        "Ġsu",
        "ccess"
      ],
      [
        "o",
        "le"
      ],
      [
        "ou",
        "se"
      ],
      [
        "er",
        "v"
      ],
      [
        "Ġc",
        "ount"
      ],
      [
        "Ġp",
        "ass"
      ],
      [
        "os",
        "s"
      ],
      [
        "Ġe",
        "ff"
      ],
      [
        "Ġpe",
        "ople"
      ],
      [
        "m",
        "y"
      ],
      [
        "ch",
        "ool"
      ],
      [
        "u",
        "nd"
      ],
      [
        "ĠS",
        "p"
      ],
      [
        "st",
        "em"
      ],
      [
        "ĠC",
        "l"
      ],
      [
        "Ġoff",
        "ic"
      ],
      [
        "et",
        "s"
      ],
      [
        "Ġs",
        "ix"
      ],
      [
        "ut",
        "h"
      ],
      [
        "an",
        "ge"
      ],
      [
        "u",
        "es"
      ],
      [
        "Ġ19",
        "5"
      ],
      [
        "Ġsupp",
        "ort"
      ],
      [
        "Ġa",
        "round"
      ],
      [
        "Ġsm",
        "all"
      ],
      [
        "ĠC",
        "ol"
      ],
      [
        "ĠH",
        "owever"
      ],
      [
        "ĠSe",
        "pt"
      ],
      [
        "Ġd",
        "am"
      ],
      [
        "Ġ",
        "%"
      ],
      [
        "Ġad",
        "v"
      ],
      [
        "Ġm",
        "od"
      ],
      [
        "Ġe",
        "le"
      ],
      [
        "Ġn",
        "orth"
      ],
      [
        "ĠJ",
        "u"
      ],
      [
        "al",
        "es"
      ],
      [
        "Ġhe",
        "ad"
      ],
      [
        "i",
        "ent"
      ],
      [
        "Ġg",
        "overn"
      ],
      [
        "Ġg",
        "roup"
      ],
      [
        "ra",
        "ph"
      ],
      [
        "Ġcharac",
        "ter"
      ],
      [
        "Ġb",
        "r"
      ],
      [
        "Ġg",
        "r"
      ],
      [
        "Ġ",
        "ed"
      ],
      [
        "Ġe",
        "ach"
      ],
      [
        "Ġpo",
        "int"
      ],
      [
        "ĠSept",
        "ember"
      ],
      [
        "ĠA",
        "d"
      ],
      [
        "ward",
        "s"
      ],
      [
        "Ġcons",
        "id"
      ],
      [
        "ut",
        "ion"
      ],
      [
        "ĠD",
        "e"
      ],
      [
        "ĠGer",
        "man"
      ],
      [
        "Ġfollow",
        "ing"
      ],
      [
        "ĠW",
        "orld"
      ],
      [
        "Ġl",
        "ife"
      ],
      [
        "Ġg",
        "u"
      ],
      [
        "ĠCom",
        "m"
      ],
      [
        "ĠAl",
        "l"
      ],
      [
        "ĠAust",
        "ral"
      ],
      [
        "an",
        "c"
      ],
      [
        "Ġan",
        "n"
      ],
      [
        "Ġcont",
        "ro"
      ],
      [
        "ur",
        "al"
      ],
      [
        "Ġf",
        "ive"
      ],
      [
        "Ġv",
        "ar"
      ],
      [
        "y",
        "s"
      ],
      [
        "ĠH",
        "er"
      ],
      [
        "ĠU",
        "S"
      ],
      [
        "Ġatt",
        "ack"
      ],
      [
        "g",
        "ed"
      ],
      [
        "Ġ19",
        "3"
      ],
      [
        "ord",
        "ing"
      ],
      [
        "Ġres",
        "ult"
      ],
      [
        "Ġw",
        "ill"
      ],
      [
        "in",
        "a"
      ],
      [
        "c",
        "k"
      ],
      [
        "Ġ",
        "Q"
      ],
      [
        "Ġe",
        "ver"
      ],
      [
        "ĠP",
        "ro"
      ],
      [
        "Ġ19",
        "1"
      ],
      [
        "ĠE",
        "u"
      ],
      [
        "Ġlar",
        "ge"
      ],
      [
        "ĠM",
        "e"
      ],
      [
        "ĠI",
        "I"
      ],
      [
        "l",
        "ish"
      ],
      [
        "ĠN",
        "orth"
      ],
      [
        "l",
        "ing"
      ],
      [
        "Ġb",
        "ook"
      ],
      [
        "Ġre",
        "port"
      ],
      [
        "on",
        "t"
      ],
      [
        "ag",
        "ue"
      ],
      [
        "ĠF",
        "ran"
      ],
      [
        "b",
        "le"
      ],
      [
        "ĠF",
        "or"
      ],
      [
        "o",
        "x"
      ],
      [
        "ac",
        "ed"
      ],
      [
        "he",
        "l"
      ],
      [
        "ĠJ",
        "une"
      ],
      [
        "Ġt",
        "it"
      ],
      [
        "end",
        "ed"
      ],
      [
        "d",
        "om"
      ],
      [
        "il",
        "t"
      ],
      [
        "iv",
        "es"
      ],
      [
        "Ġ1",
        "4"
      ],
      [
        "at",
        "s"
      ],
      [
        "Ġp",
        "rom"
      ],
      [
        "e",
        "b"
      ],
      [
        "m",
        "ed"
      ],
      [
        "Ġwe",
        "ek"
      ],
      [
        "at",
        "ely"
      ],
      [
        "av",
        "ing"
      ],
      [
        "ore",
        "d"
      ],
      [
        "Ġst",
        "r"
      ],
      [
        "ĠJ",
        "an"
      ],
      [
        "Ġs",
        "ince"
      ],
      [
        "ĠSt",
        "ates"
      ],
      [
        "Ġfin",
        "al"
      ],
      [
        "Ġm",
        "ajor"
      ],
      [
        "a",
        "x"
      ],
      [
        "Ġs",
        "outh"
      ],
      [
        "Ġrece",
        "ived"
      ],
      [
        "ĠS",
        "outh"
      ],
      [
        "iv",
        "ision"
      ],
      [
        "ĠG",
        "u"
      ],
      [
        "Ġn",
        "ame"
      ],
      [
        "Ġpart",
        "ic"
      ],
      [
        "er",
        "y"
      ],
      [
        "Ġhe",
        "l"
      ],
      [
        "olog",
        "y"
      ],
      [
        "pt",
        "ion"
      ],
      [
        "ĠChr",
        "ist"
      ],
      [
        "Ġc",
        "are"
      ],
      [
        "ĠO",
        "ct"
      ],
      [
        "Ġpubl",
        "ic"
      ],
      [
        "Ġre",
        "st"
      ],
      [
        "Ġsy",
        "stem"
      ],
      [
        "ect",
        "ed"
      ],
      [
        "il",
        "ity"
      ],
      [
        "ĠB",
        "e"
      ],
      [
        "t",
        "ing"
      ],
      [
        "ĠK",
        "ing"
      ],
      [
        "Ġst",
        "ate"
      ],
      [
        "Ġb",
        "att"
      ],
      [
        "a",
        "e"
      ],
      [
        "Ġwh",
        "at"
      ],
      [
        "ag",
        "es"
      ],
      [
        "u",
        "ary"
      ],
      [
        "Ġl",
        "ast"
      ],
      [
        "ra",
        "nd"
      ],
      [
        "Ġdescrib",
        "ed"
      ],
      [
        "ĠOct",
        "ober"
      ],
      [
        "Ġl",
        "ine"
      ],
      [
        "Ġcl",
        "ass"
      ],
      [
        "Ġ",
        "$"
      ],
      [
        "Ġd",
        "et"
      ],
      [
        "iv",
        "ing"
      ],
      [
        "ra",
        "ft"
      ],
      [
        "ĠN",
        "ov"
      ],
      [
        "Ġplay",
        "ed"
      ],
      [
        "Ġpro",
        "t"
      ],
      [
        "Ġinc",
        "re"
      ],
      [
        "a",
        "ur"
      ],
      [
        "rop",
        "ical"
      ],
      [
        "Ġto",
        "ok"
      ],
      [
        "Ġm",
        "ar"
      ],
      [
        "Ġn",
        "ow"
      ],
      [
        "if",
        "ied"
      ],
      [
        "a",
        "im"
      ],
      [
        "ĠP",
        "ar"
      ],
      [
        "ion",
        "al"
      ],
      [
        "g",
        "et"
      ],
      [
        "ro",
        "te"
      ],
      [
        "ant",
        "s"
      ],
      [
        "od",
        "y"
      ],
      [
        "Ġ",
        "["
      ],
      [
        "Ġ",
        "]"
      ],
      [
        "iv",
        "ely"
      ],
      [
        "ĠY",
        "ork"
      ],
      [
        "Ġbu",
        "ild"
      ],
      [
        "Ġw",
        "orld"
      ],
      [
        ".",
        "."
      ],
      [
        "Ġl",
        "ate"
      ],
      [
        "ĠD",
        "ec"
      ],
      [
        "y",
        "c"
      ],
      [
        "Ġ2",
        "5"
      ],
      [
        "ĠJu",
        "ly"
      ],
      [
        "Ġw",
        "rote"
      ],
      [
        "em",
        "pt"
      ],
      [
        "b",
        "all"
      ],
      [
        "b",
        "y"
      ],
      [
        "es",
        "p"
      ],
      [
        "ĠEu",
        "rop"
      ],
      [
        "re",
        "t"
      ],
      [
        "Ġw",
        "on"
      ],
      [
        "a",
        "pp"
      ],
      [
        "ide",
        "o"
      ],
      [
        "Ġspec",
        "ies"
      ],
      [
        "s",
        "ion"
      ],
      [
        "Ġch",
        "ild"
      ],
      [
        "ian",
        "s"
      ],
      [
        "Ġ.",
        ".."
      ],
      [
        "om",
        "et"
      ],
      [
        "i",
        "od"
      ],
      [
        "Ġp",
        "ort"
      ],
      [
        "Ġm",
        "uch"
      ],
      [
        "ĠC",
        "an"
      ],
      [
        "ĠD",
        "uring"
      ],
      [
        "Ġcon",
        "f"
      ],
      [
        "Ġser",
        "v"
      ],
      [
        "Ġc",
        "amp"
      ],
      [
        "ect",
        "ion"
      ],
      [
        "Ġre",
        "f"
      ],
      [
        "Ġd",
        "ue"
      ],
      [
        "ec",
        "h"
      ],
      [
        "Ġsh",
        "ort"
      ],
      [
        "ar",
        "n"
      ],
      [
        "Ġal",
        "low"
      ],
      [
        "Ġsing",
        "le"
      ],
      [
        "ĠA",
        "pr"
      ],
      [
        "ĠApr",
        "il"
      ],
      [
        "Ġdif",
        "fer"
      ],
      [
        "Ġj",
        "ust"
      ],
      [
        "Ġde",
        "ath"
      ],
      [
        "ic",
        "ally"
      ],
      [
        "r",
        "act"
      ],
      [
        "Ġst",
        "ar"
      ],
      [
        "Ġs",
        "l"
      ],
      [
        "Ġg",
        "un"
      ],
      [
        "iss",
        "ion"
      ],
      [
        "om",
        "in"
      ],
      [
        "it",
        "al"
      ],
      [
        "ĠM",
        "c"
      ],
      [
        "ĠA",
        "nd"
      ],
      [
        "Ġan",
        "other"
      ],
      [
        "Ġinclud",
        "ed"
      ],
      [
        "ĠM",
        "us"
      ],
      [
        "Ġpos",
        "s"
      ],
      [
        "a",
        "i"
      ],
      [
        "Ġo",
        "ld"
      ],
      [
        "Ġt",
        "ri"
      ],
      [
        "h",
        "am"
      ],
      [
        "Ġst",
        "orm"
      ],
      [
        "ĠG",
        "e"
      ],
      [
        "Ġv",
        "is"
      ],
      [
        "ĠJan",
        "uary"
      ],
      [
        "Ġ3",
        "0"
      ],
      [
        "Ġl",
        "ist"
      ],
      [
        "Ġle",
        "ft"
      ],
      [
        "Ġev",
        "en"
      ],
      [
        "Ġp",
        "ar"
      ],
      [
        "Ġwith",
        "in"
      ],
      [
        "ĠEng",
        "land"
      ],
      [
        "p",
        "le"
      ],
      [
        "Ġpro",
        "g"
      ],
      [
        "Ġapp",
        "ro"
      ],
      [
        "g",
        "er"
      ],
      [
        "it",
        "ions"
      ],
      [
        "Ġn",
        "amed"
      ],
      [
        "op",
        "s"
      ],
      [
        "Ġb",
        "ased"
      ],
      [
        "Ġest",
        "ab"
      ],
      [
        "Ġ",
        "if"
      ],
      [
        "in",
        "c"
      ],
      [
        "Ġal",
        "though"
      ],
      [
        "Ġatt",
        "empt"
      ],
      [
        "Ġto",
        "p"
      ],
      [
        "il",
        "ar"
      ],
      [
        "Ġtr",
        "ack"
      ],
      [
        "Ġver",
        "y"
      ],
      [
        "Ġbel",
        "ie"
      ],
      [
        "Ġb",
        "re"
      ],
      [
        "Ġth",
        "ird"
      ],
      [
        "ard",
        "s"
      ],
      [
        "Ġh",
        "um"
      ],
      [
        "Ġw",
        "ater"
      ],
      [
        "ĠMar",
        "ch"
      ],
      [
        "en",
        "e"
      ],
      [
        "Ġg",
        "ames"
      ],
      [
        "Ġor",
        "gan"
      ],
      [
        "c",
        "hed"
      ],
      [
        "or",
        "p"
      ],
      [
        "ent",
        "ly"
      ],
      [
        "Ġbe",
        "g"
      ],
      [
        "Ġp",
        "ower"
      ],
      [
        "Ġev",
        "ent"
      ],
      [
        "Ġprev",
        "ious"
      ],
      [
        "Ġfam",
        "ily"
      ],
      [
        "Ġs",
        "chool"
      ],
      [
        "m",
        "s"
      ],
      [
        "Ġb",
        "est"
      ],
      [
        "ur",
        "ric"
      ],
      [
        "ul",
        "ation"
      ],
      [
        "ĠNov",
        "ember"
      ],
      [
        "an",
        "ces"
      ],
      [
        "Ġper",
        "iod"
      ],
      [
        "Ġrev",
        "iew"
      ],
      [
        "Ġw",
        "ay"
      ],
      [
        "ĠH",
        "is"
      ],
      [
        "Ġm",
        "en"
      ],
      [
        "as",
        "ter"
      ],
      [
        "Ġex",
        "pl"
      ],
      [
        "Ġh",
        "ome"
      ],
      [
        "ĠEurop",
        "e"
      ],
      [
        "Ġf",
        "ur"
      ],
      [
        "qu",
        "e"
      ],
      [
        "Ġgovern",
        "ment"
      ],
      [
        "Ġt",
        "yp"
      ],
      [
        "ĠB",
        "y"
      ],
      [
        "ĠP",
        "h"
      ],
      [
        "i",
        "ence"
      ],
      [
        "Ġt",
        "urn"
      ],
      [
        "Ġ19",
        "2"
      ],
      [
        "ĠDec",
        "ember"
      ],
      [
        "le",
        "t"
      ],
      [
        "at",
        "ure"
      ],
      [
        "Ġc",
        "ap"
      ],
      [
        "Ġth",
        "ose"
      ],
      [
        "Ġh",
        "and"
      ],
      [
        "ĠThe",
        "re"
      ],
      [
        "av",
        "y"
      ],
      [
        "Ġpl",
        "ace"
      ],
      [
        "ac",
        "hed"
      ],
      [
        "Ġm",
        "ed"
      ],
      [
        "he",
        "st"
      ],
      [
        "ĠC",
        "ity"
      ],
      [
        "Ġst",
        "ory"
      ],
      [
        "o",
        "int"
      ],
      [
        "ag",
        "ed"
      ],
      [
        "Ġbu",
        "ilt"
      ],
      [
        "ed",
        "er"
      ],
      [
        "am",
        "b"
      ],
      [
        "Ġg",
        "reat"
      ],
      [
        "en",
        "se"
      ],
      [
        "Ġd",
        "r"
      ],
      [
        "en",
        "ces"
      ],
      [
        "Ġp",
        "erson"
      ],
      [
        "iv",
        "en"
      ],
      [
        "Ġcomm",
        "and"
      ],
      [
        "Ġ1",
        "00"
      ],
      [
        "Ġk",
        "ill"
      ],
      [
        "ĠF",
        "l"
      ],
      [
        "ĠW",
        "hen"
      ],
      [
        "oc",
        "i"
      ],
      [
        "Ġmon",
        "th"
      ],
      [
        "Ġs",
        "ent"
      ],
      [
        "it",
        "ary"
      ],
      [
        "el",
        "t"
      ],
      [
        "Ġo",
        "pp"
      ],
      [
        "Ġm",
        "ake"
      ],
      [
        "Ġorigin",
        "al"
      ],
      [
        "ivers",
        "ity"
      ],
      [
        "o",
        "ad"
      ],
      [
        "Ġ",
        "Â"
      ],
      [
        "Ġh",
        "al"
      ],
      [
        "Ġre",
        "qu"
      ],
      [
        "v",
        "es"
      ],
      [
        "id",
        "es"
      ],
      [
        "ĠP",
        "r"
      ],
      [
        "ĠN",
        "ational"
      ],
      [
        "Ġen",
        "g"
      ],
      [
        "g",
        "y"
      ],
      [
        "n",
        "ess"
      ],
      [
        "ent",
        "ion"
      ],
      [
        "Ġ200",
        "9"
      ],
      [
        "ĠO",
        "r"
      ],
      [
        "Ġ201",
        "0"
      ],
      [
        "Ġa",
        "uth"
      ],
      [
        "Ġv",
        "ideo"
      ],
      [
        "Ġ200",
        "8"
      ],
      [
        "b",
        "s"
      ],
      [
        "Ġan",
        "t"
      ],
      [
        "is",
        "on"
      ],
      [
        "Ġm",
        "ark"
      ],
      [
        "Ġd",
        "em"
      ],
      [
        "Ġsu",
        "g"
      ],
      [
        "ru",
        "ction"
      ],
      [
        "ak",
        "es"
      ],
      [
        "Ġpres",
        "ent"
      ],
      [
        "l",
        "ine"
      ],
      [
        "Ġle",
        "g"
      ],
      [
        "Ġcl",
        "ub"
      ],
      [
        "ĠM",
        "an"
      ],
      [
        "ĠR",
        "iver"
      ],
      [
        "ren",
        "ch"
      ],
      [
        "iv",
        "al"
      ],
      [
        "Ġv",
        "iew"
      ],
      [
        "ĠB",
        "ro"
      ],
      [
        "ri",
        "end"
      ],
      [
        "o",
        "ard"
      ],
      [
        "Ġre",
        "pl"
      ],
      [
        "og",
        "raph"
      ],
      [
        "Ġc",
        "apt"
      ],
      [
        "al",
        "k"
      ],
      [
        "Ġst",
        "ill"
      ],
      [
        "Ġmov",
        "ed"
      ],
      [
        "Ġloc",
        "al"
      ],
      [
        "Ġst",
        "and"
      ],
      [
        "en",
        "g"
      ],
      [
        "Ġl",
        "ed"
      ],
      [
        "Ġro",
        "le"
      ],
      [
        "ot",
        "t"
      ],
      [
        "ain",
        "ing"
      ],
      [
        "l",
        "er"
      ],
      [
        "Ġt",
        "erm"
      ],
      [
        "Ġc",
        "ame"
      ],
      [
        "ak",
        "en"
      ],
      [
        "Ġd",
        "est"
      ],
      [
        "Ġis",
        "s"
      ],
      [
        "or",
        "ies"
      ],
      [
        "un",
        "g"
      ],
      [
        "s",
        "ide"
      ],
      [
        "id",
        "ge"
      ],
      [
        "m",
        "p"
      ],
      [
        "Ġd",
        "ra"
      ],
      [
        "Ġof",
        "ten"
      ],
      [
        "Ġcomm",
        "on"
      ],
      [
        "Ġadd",
        "ition"
      ],
      [
        "Ġhist",
        "ory"
      ],
      [
        "urric",
        "ane"
      ],
      [
        "Ġc",
        "aus"
      ],
      [
        "le",
        "v"
      ],
      [
        "s",
        "h"
      ],
      [
        "ĠCom",
        "p"
      ],
      [
        "at",
        "ter"
      ],
      [
        "Ġtr",
        "ad"
      ],
      [
        "re",
        "w"
      ],
      [
        "Ġf",
        "ew"
      ],
      [
        "ĠN",
        "o"
      ],
      [
        "ĠW",
        "e"
      ],
      [
        "ĠCh",
        "ar"
      ],
      [
        "Ġsug",
        "gest"
      ],
      [
        "l",
        "u"
      ],
      [
        "re",
        "ad"
      ],
      [
        "is",
        "ter"
      ],
      [
        "ĠA",
        "b"
      ],
      [
        "Ġ200",
        "7"
      ],
      [
        "Ġne",
        "xt"
      ],
      [
        "Ġeff",
        "ect"
      ],
      [
        "Ġconsid",
        "ered"
      ],
      [
        "Ġb",
        "as"
      ],
      [
        "Ġde",
        "b"
      ],
      [
        "Ġplay",
        "er"
      ],
      [
        "ĠOn",
        "e"
      ],
      [
        "i",
        "or"
      ],
      [
        "Ġc",
        "our"
      ],
      [
        "as",
        "tern"
      ],
      [
        "Ġm",
        "id"
      ],
      [
        "ĠT",
        "r"
      ],
      [
        "ĠEng",
        "lish"
      ],
      [
        "Ġhel",
        "p"
      ],
      [
        "e",
        "ad"
      ],
      [
        "Ġex",
        "per"
      ],
      [
        "ut",
        "ed"
      ],
      [
        "ĠF",
        "rench"
      ],
      [
        "Ġcare",
        "er"
      ],
      [
        "Ġs",
        "ide"
      ],
      [
        "Ġsim",
        "ilar"
      ],
      [
        "Ġrecord",
        "ed"
      ],
      [
        "ĠB",
        "att"
      ],
      [
        "ay",
        "s"
      ],
      [
        "Ġr",
        "ight"
      ],
      [
        "Ġ",
        "X"
      ],
      [
        "Ġw",
        "in"
      ],
      [
        "Ġin",
        "it"
      ],
      [
        "Ġim",
        "port"
      ],
      [
        "ĠA",
        "cc"
      ],
      [
        "Ġre",
        "al"
      ],
      [
        "s",
        "elf"
      ],
      [
        "ĠR",
        "ec"
      ],
      [
        "Ġcl",
        "aim"
      ],
      [
        "Ġc",
        "over"
      ],
      [
        "Ġar",
        "ch"
      ],
      [
        "Ġcomp",
        "any"
      ],
      [
        "b",
        "e"
      ],
      [
        "in",
        "ing"
      ],
      [
        "Ġto",
        "wn"
      ],
      [
        "Ġpubl",
        "ished"
      ],
      [
        "Ġs",
        "old"
      ],
      [
        "Ġcontin",
        "ued"
      ],
      [
        "Ġre",
        "fer"
      ],
      [
        "Ġex",
        "c"
      ],
      [
        "Ġw",
        "ind"
      ],
      [
        "Ġdiffer",
        "ent"
      ],
      [
        "Ġy",
        "ou"
      ],
      [
        "Ġt",
        "ake"
      ],
      [
        "Ġwith",
        "out"
      ],
      [
        "tern",
        "ational"
      ],
      [
        "Ġsong",
        "s"
      ],
      [
        "ĠW",
        "ith"
      ],
      [
        "y",
        "n"
      ],
      [
        "Ġto",
        "t"
      ],
      [
        "ĠP",
        "er"
      ],
      [
        "ĠP",
        "ort"
      ],
      [
        "Ġro",
        "ad"
      ],
      [
        "Ġfor",
        "mer"
      ],
      [
        "Ġ2",
        "1"
      ],
      [
        "Ġpol",
        "it"
      ],
      [
        "Ġt",
        "w"
      ],
      [
        "Ġt",
        "em"
      ],
      [
        "ĠB",
        "ar"
      ],
      [
        "Ġhe",
        "ld"
      ],
      [
        "c",
        "hes"
      ],
      [
        "ĠT",
        "e"
      ],
      [
        "Ġm",
        "emb"
      ],
      [
        "Ġam",
        "ong"
      ],
      [
        "Ġle",
        "vel"
      ],
      [
        "Ġ",
        "el"
      ],
      [
        "ĠW",
        "ill"
      ],
      [
        "n",
        "ing"
      ],
      [
        "Ġf",
        "ield"
      ],
      [
        "Ġm",
        "ag"
      ],
      [
        "p",
        "ar"
      ],
      [
        "Ġe",
        "lect"
      ],
      [
        "n",
        "er"
      ],
      [
        "im",
        "ent"
      ],
      [
        "Ġa",
        "v"
      ],
      [
        "it",
        "ar"
      ],
      [
        "Ġd",
        "el"
      ],
      [
        "us",
        "s"
      ],
      [
        "Ġpro",
        "p"
      ],
      [
        "Ġwrit",
        "ten"
      ],
      [
        "inn",
        "ing"
      ],
      [
        "it",
        "er"
      ],
      [
        "res",
        "ent"
      ],
      [
        "Ġever",
        "y"
      ],
      [
        "ĠA",
        "m"
      ],
      [
        "ĠSt",
        "ate"
      ],
      [
        "es",
        "tern"
      ],
      [
        "Ġ2",
        "3"
      ],
      [
        "ĠE",
        "ar"
      ],
      [
        "Ġcomm",
        "un"
      ],
      [
        "Ġhal",
        "f"
      ],
      [
        "le",
        "ar"
      ],
      [
        "y",
        "le"
      ],
      [
        "ĠD",
        "ivision"
      ],
      [
        "amp",
        "ions"
      ],
      [
        "Ġ201",
        "1"
      ],
      [
        "Ġrele",
        "ase"
      ],
      [
        "ri",
        "ed"
      ],
      [
        "Ġfur",
        "ther"
      ],
      [
        "ot",
        "s"
      ],
      [
        "Ġbec",
        "ome"
      ],
      [
        "Ġw",
        "est"
      ],
      [
        "Ġ200",
        "6"
      ],
      [
        "ens",
        "ive"
      ],
      [
        "ĠAcc",
        "ording"
      ],
      [
        "Ġc",
        "r"
      ],
      [
        "en",
        "c"
      ],
      [
        "ro",
        "du"
      ],
      [
        "Ġch",
        "urch"
      ],
      [
        "ĠAl",
        "though"
      ],
      [
        "Ġstr",
        "ong"
      ],
      [
        "Ġf",
        "ore"
      ],
      [
        "Ġh",
        "owever"
      ],
      [
        "Ġday",
        "s"
      ],
      [
        "ro",
        "y"
      ],
      [
        "Ġfin",
        "d"
      ],
      [
        "ĠCan",
        "ad"
      ],
      [
        "Ġc",
        "ur"
      ],
      [
        "ic",
        "es"
      ],
      [
        "Ġe",
        "ast"
      ],
      [
        "is",
        "ing"
      ],
      [
        "ĠC",
        "ount"
      ],
      [
        "Ġver",
        "sion"
      ],
      [
        "Ġf",
        "oot"
      ],
      [
        "Ġbe",
        "h"
      ],
      [
        "Ġsp",
        "e"
      ],
      [
        "au",
        "gh"
      ],
      [
        "Ġpartic",
        "ular"
      ],
      [
        "er",
        "ing"
      ],
      [
        "Ġ",
        "&"
      ],
      [
        "Ġm",
        "y"
      ],
      [
        "Ġl",
        "ow"
      ],
      [
        "ĠCh",
        "urch"
      ],
      [
        "iz",
        "e"
      ],
      [
        "eb",
        "ru"
      ],
      [
        "ĠG",
        "ener"
      ],
      [
        "Ġpro",
        "f"
      ],
      [
        "Ġcomp",
        "et"
      ],
      [
        "Ġpos",
        "ition"
      ],
      [
        "Ġtit",
        "le"
      ],
      [
        "Ġ2",
        "4"
      ],
      [
        "ĠW",
        "est"
      ],
      [
        "Ġmil",
        "itary"
      ],
      [
        "ĠR",
        "oman"
      ],
      [
        "Ġcon",
        "v"
      ],
      [
        "Ġauth",
        "or"
      ],
      [
        "Ġ2",
        "2"
      ],
      [
        "Ġ2",
        "6"
      ],
      [
        "Ġapp",
        "e"
      ],
      [
        "re",
        "en"
      ],
      [
        "Ġor",
        "der"
      ],
      [
        "ĠLe",
        "ague"
      ],
      [
        "ou",
        "ther"
      ],
      [
        "Ġs",
        "ol"
      ],
      [
        "ron",
        "t"
      ],
      [
        "itt",
        "le"
      ],
      [
        "Ġcontro",
        "l"
      ],
      [
        "outher",
        "n"
      ],
      [
        "Ġt",
        "imes"
      ],
      [
        "ĠS",
        "ong"
      ],
      [
        "ac",
        "es"
      ],
      [
        "f",
        "ric"
      ],
      [
        "Ġb",
        "and"
      ],
      [
        "ĠF",
        "ebru"
      ],
      [
        "ĠFebru",
        "ary"
      ],
      [
        "Ġf",
        "re"
      ],
      [
        "pp",
        "ed"
      ],
      [
        "Ġl",
        "ess"
      ],
      [
        "Ġg",
        "ave"
      ],
      [
        "Ġpro",
        "ject"
      ],
      [
        "Ġv",
        "ict"
      ],
      [
        "Ġdef",
        "e"
      ],
      [
        "yl",
        "an"
      ],
      [
        "ĠGe",
        "or"
      ],
      [
        "os",
        "p"
      ],
      [
        "ĠAs",
        "s"
      ],
      [
        "Ġ",
        "!"
      ],
      [
        "ĠD",
        "ylan"
      ],
      [
        "Ġch",
        "ang"
      ],
      [
        "Ġreport",
        "ed"
      ],
      [
        "Ġmemb",
        "ers"
      ],
      [
        "Ġn",
        "ort"
      ],
      [
        "ĠP",
        "ark"
      ],
      [
        "ric",
        "k"
      ],
      [
        "Ġn",
        "ov"
      ],
      [
        "Ġprodu",
        "ced"
      ],
      [
        "Ġst",
        "at"
      ],
      [
        "lev",
        "ision"
      ],
      [
        "Ġtot",
        "al"
      ],
      [
        "is",
        "c"
      ],
      [
        "ar",
        "m"
      ],
      [
        "et",
        "er"
      ],
      [
        "her",
        "n"
      ],
      [
        "Ġ201",
        "2"
      ],
      [
        "ay",
        "ing"
      ],
      [
        "ĠO",
        "ld"
      ],
      [
        "Ġar",
        "r"
      ],
      [
        "iet",
        "y"
      ],
      [
        "Ġc",
        "ult"
      ],
      [
        "Ġpop",
        "ular"
      ],
      [
        "Ġt",
        "er"
      ],
      [
        "Ġf",
        "ire"
      ],
      [
        "es",
        "c"
      ],
      [
        "oun",
        "g"
      ],
      [
        "ail",
        "ed"
      ],
      [
        "Ġprodu",
        "ction"
      ],
      [
        "ur",
        "s"
      ],
      [
        "ap",
        "an"
      ],
      [
        "Ġob",
        "s"
      ],
      [
        "Ġt",
        "ropical"
      ],
      [
        "he",
        "m"
      ],
      [
        "ĠS",
        "im"
      ],
      [
        "Ġ2",
        "8"
      ],
      [
        "ĠP",
        "ol"
      ],
      [
        "ress",
        "ion"
      ],
      [
        "Ġp",
        "ost"
      ],
      [
        "Ġfor",
        "ces"
      ],
      [
        "ĠSt",
        "e"
      ],
      [
        "Ġcrit",
        "ic"
      ],
      [
        "f",
        "ord"
      ],
      [
        "ĠH",
        "a"
      ],
      [
        "ĠJ",
        "apan"
      ],
      [
        "Ġchild",
        "ren"
      ],
      [
        "Ġhist",
        "or"
      ],
      [
        "Ġp",
        "at"
      ],
      [
        "Ġh",
        "aving"
      ],
      [
        "us",
        "h"
      ],
      [
        "ĠE",
        "d"
      ],
      [
        "Ġinclud",
        "e"
      ],
      [
        "al",
        "d"
      ],
      [
        "ec",
        "hn"
      ],
      [
        "r",
        "ing"
      ],
      [
        "our",
        "s"
      ],
      [
        "Ġsur",
        "v"
      ],
      [
        "Ġinv",
        "ol"
      ],
      [
        "Ġinf",
        "lu"
      ],
      [
        "al",
        "ion"
      ],
      [
        "n",
        "e"
      ],
      [
        "Ġs",
        "k"
      ],
      [
        "Ġl",
        "ost"
      ],
      [
        "ren",
        "t"
      ],
      [
        "Ġa",
        "ff"
      ],
      [
        "at",
        "ic"
      ],
      [
        "ĠS",
        "u"
      ],
      [
        "Ġg",
        "iven"
      ],
      [
        "Ġcount",
        "ry"
      ],
      [
        "Ġw",
        "ant"
      ],
      [
        "ab",
        "ly"
      ],
      [
        "Ġrep",
        "resent"
      ],
      [
        "w",
        "ork"
      ],
      [
        "ĠE",
        "l"
      ],
      [
        "Ġsign",
        "ific"
      ],
      [
        "ĠC",
        "ent"
      ],
      [
        "om",
        "en"
      ],
      [
        "ĠD",
        "av"
      ],
      [
        "Ġman",
        "ag"
      ],
      [
        "op",
        "e"
      ],
      [
        "pl",
        "oy"
      ],
      [
        "ĠGener",
        "al"
      ],
      [
        "Ġp",
        "ress"
      ],
      [
        "Ġe",
        "qu"
      ],
      [
        "ver",
        "s"
      ],
      [
        "Ġ201",
        "3"
      ],
      [
        "g",
        "es"
      ],
      [
        "Ġe",
        "ight"
      ],
      [
        "ĠM",
        "iss"
      ],
      [
        "Ġcom",
        "b"
      ],
      [
        "re",
        "et"
      ],
      [
        "Ġs",
        "it"
      ],
      [
        "Ġs",
        "ite"
      ],
      [
        "ad",
        "es"
      ],
      [
        "Ġse",
        "en"
      ],
      [
        "ir",
        "c"
      ],
      [
        "Ġprog",
        "ram"
      ],
      [
        "s",
        "p"
      ],
      [
        "on",
        "es"
      ],
      [
        "o",
        "on"
      ],
      [
        "Ġm",
        "aking"
      ],
      [
        "ĠA",
        "fric"
      ],
      [
        "Ġn",
        "ever"
      ],
      [
        "Ġmat",
        "ch"
      ],
      [
        "r",
        "ation"
      ],
      [
        "Ġf",
        "em"
      ],
      [
        "Ġst",
        "ated"
      ],
      [
        "Ġestab",
        "l"
      ],
      [
        "Ã",
        "¡"
      ],
      [
        "it",
        "her"
      ],
      [
        "Ġb",
        "ody"
      ],
      [
        "Ġpl",
        "an"
      ],
      [
        "Ġf",
        "act"
      ],
      [
        "Ġre",
        "ad"
      ],
      [
        "Ġor",
        "d"
      ],
      [
        "Ġsh",
        "ould"
      ],
      [
        "ĠWh",
        "ile"
      ],
      [
        "ĠE",
        "v"
      ],
      [
        "se",
        "qu"
      ],
      [
        "Ġ5",
        "0"
      ],
      [
        "Ġreturn",
        "ed"
      ],
      [
        "f",
        "ic"
      ],
      [
        "at",
        "or"
      ],
      [
        "ĠUn",
        "iversity"
      ],
      [
        "olog",
        "ical"
      ],
      [
        "Ġs",
        "oc"
      ],
      [
        "Ġf",
        "t"
      ],
      [
        "a",
        "un"
      ],
      [
        "Ġ",
        "er"
      ],
      [
        "Ġs",
        "ound"
      ],
      [
        "Ġ19",
        "0"
      ],
      [
        "Ä",
        "ģ"
      ],
      [
        "re",
        "m"
      ],
      [
        "Ġh",
        "ow"
      ],
      [
        "ap",
        "e"
      ],
      [
        "ĠThe",
        "se"
      ],
      [
        "Ġg",
        "en"
      ],
      [
        "Ġis",
        "land"
      ],
      [
        "ĠN",
        "e"
      ],
      [
        "ĠAmeric",
        "a"
      ],
      [
        "Ġc",
        "ou"
      ],
      [
        "Ġst",
        "ruct"
      ],
      [
        "Ġear",
        "l"
      ],
      [
        "Ġship",
        "s"
      ],
      [
        "Ġann",
        "oun"
      ],
      [
        "Ġestabl",
        "ished"
      ],
      [
        "ampions",
        "hip"
      ],
      [
        "Ġg",
        "od"
      ],
      [
        "Ġg",
        "round"
      ],
      [
        "ĠJ",
        "ack"
      ],
      [
        "Ġch",
        "art"
      ],
      [
        "Ġpop",
        "ulation"
      ],
      [
        "a",
        "ff"
      ],
      [
        "re",
        "am"
      ],
      [
        "Ġc",
        "at"
      ],
      [
        "Ġd",
        "iv"
      ],
      [
        "Ġre",
        "ached"
      ],
      [
        "Ġj",
        "o"
      ],
      [
        "g",
        "round"
      ],
      [
        "Ġ2",
        "7"
      ],
      [
        "n",
        "a"
      ],
      [
        "v",
        "iew"
      ],
      [
        "re",
        "land"
      ],
      [
        "Ġl",
        "ight"
      ],
      [
        "Ġnot",
        "ed"
      ],
      [
        "a",
        "ul"
      ],
      [
        "k",
        "i"
      ],
      [
        "Ġa",
        "way"
      ],
      [
        "Ġf",
        "riend"
      ],
      [
        "ĠI",
        "reland"
      ],
      [
        "ĠBl",
        "ack"
      ],
      [
        "il",
        "le"
      ],
      [
        "ig",
        "ade"
      ],
      [
        "us",
        "ed"
      ],
      [
        "um",
        "ent"
      ],
      [
        "in",
        "ation"
      ],
      [
        "ff",
        "ic"
      ],
      [
        "es",
        "e"
      ],
      [
        "Ġl",
        "im"
      ],
      [
        "ol",
        "l"
      ],
      [
        "Ġthrough",
        "out"
      ],
      [
        "Ġac",
        "ross"
      ],
      [
        "ĠRe",
        "g"
      ],
      [
        "Ġdevelop",
        "ed"
      ],
      [
        "Ġthough",
        "t"
      ],
      [
        "i",
        "ec"
      ],
      [
        "ĠM",
        "ich"
      ],
      [
        "ĠL",
        "ond"
      ],
      [
        "Ġse",
        "ven"
      ],
      [
        "Ġs",
        "omet"
      ],
      [
        "Ġc",
        "ast"
      ],
      [
        "ain",
        "t"
      ],
      [
        "ord",
        "s"
      ],
      [
        "st",
        "er"
      ],
      [
        "Ġg",
        "l"
      ],
      [
        "Ġpro",
        "c"
      ],
      [
        "ĠWill",
        "iam"
      ],
      [
        "ĠLond",
        "on"
      ],
      [
        "Ġp",
        "ra"
      ],
      [
        "Ġr",
        "ad"
      ],
      [
        "Ġint",
        "rodu"
      ],
      [
        "a",
        "f"
      ],
      [
        "Ġg",
        "ood"
      ],
      [
        "ĠF",
        "eder"
      ],
      [
        "Ġus",
        "ing"
      ],
      [
        "Ġhim",
        "self"
      ],
      [
        "Ġdevelop",
        "ment"
      ],
      [
        "Ġbl",
        "ack"
      ],
      [
        "in",
        "ess"
      ],
      [
        "om",
        "b"
      ],
      [
        "Ġh",
        "ig"
      ],
      [
        "ĠH",
        "ar"
      ],
      [
        "Ġf",
        "elt"
      ],
      [
        "id",
        "ence"
      ],
      [
        "ree",
        "k"
      ],
      [
        "ĠAustral",
        "ia"
      ],
      [
        "Ġhum",
        "an"
      ],
      [
        "Ġsignific",
        "ant"
      ],
      [
        "Ġ",
        "ide"
      ],
      [
        "ĠA",
        "ir"
      ],
      [
        "ut",
        "es"
      ],
      [
        "are",
        "n"
      ],
      [
        "Ġw",
        "at"
      ],
      [
        "Ġperform",
        "ed"
      ],
      [
        "Ġb",
        "ar"
      ],
      [
        "um",
        "p"
      ],
      [
        "Ġimport",
        "ant"
      ],
      [
        "m",
        "ost"
      ],
      [
        "iv",
        "il"
      ],
      [
        "ĠG",
        "l"
      ],
      [
        "Ġad",
        "m"
      ],
      [
        "ĠAt",
        "l"
      ],
      [
        "it",
        "ive"
      ],
      [
        "Ġn",
        "ight"
      ],
      [
        "Ġwrit",
        "ing"
      ],
      [
        "Ġf",
        "un"
      ],
      [
        "ĠP",
        "al"
      ],
      [
        "ĠR",
        "ich"
      ],
      [
        "ĠE",
        "x"
      ],
      [
        "Ġdest",
        "roy"
      ],
      [
        "Ġf",
        "ather"
      ],
      [
        "ĠM",
        "ag"
      ],
      [
        "Ġmil",
        "es"
      ],
      [
        "Ġb",
        "o"
      ],
      [
        "ant",
        "ic"
      ],
      [
        "Ġte",
        "levision"
      ],
      [
        "ĠR",
        "oy"
      ],
      [
        "Ġinter",
        "est"
      ],
      [
        "Ġvar",
        "ious"
      ],
      [
        "os",
        "aur"
      ],
      [
        "Ġare",
        "as"
      ],
      [
        "ie",
        "f"
      ],
      [
        "Ġto",
        "ur"
      ],
      [
        "im",
        "ately"
      ],
      [
        "Ġwh",
        "ite"
      ],
      [
        "Ġmod",
        "ern"
      ],
      [
        "Ġf",
        "ull"
      ],
      [
        "f",
        "ield"
      ],
      [
        "Ġt",
        "en"
      ],
      [
        "Ġd",
        "ied"
      ],
      [
        "ĠC",
        "al"
      ],
      [
        "Ġl",
        "ook"
      ],
      [
        "ri",
        "e"
      ],
      [
        "og",
        "n"
      ],
      [
        "Ġen",
        "c"
      ],
      [
        "Ġact",
        "iv"
      ],
      [
        "a",
        "el"
      ],
      [
        "a",
        "ign"
      ],
      [
        "Ġw",
        "ent"
      ],
      [
        "Ġl",
        "aw"
      ],
      [
        "ĠR",
        "ober"
      ]
    ]
  }
}